BF0D4F76
BE18EFFC
3D721D25
3EA06E87
3E861EF5
3D73BAF7
3D1E819C
3D985E94
3EAA6731
3E7EFA9D
BF19E863
BF11815A
BE92F394
3E5B1603
3E3A0125
3E3B95B8
3CFBA872
BE4F0B43
BEAD08D1
3E13033E
BEFF2EAD
BF1A4D6A
BE91E688
3D3A3C70
3D650858
3EA5396C
3EAB0439
3BF5B415
3ECBAD44
BDA49709
BE95F4B9
BE0DA4EE
3E09C94C
3EFCA644
3E6B34E6
3DF93ACA
3D39594C
3D91D35E
3F175ACB
3E033B0C
BE8F10C4
3E31C2C2
3F19A23D
3E7225EA
3E18B502
BEEA2AFF
BD801EAD
3DF74A53
3EF111CF
3EA14935
BE600DE3
3E48E369
3D8EBA76
3EA78A64
3DBD622E
BECDF578
3D2E5591
BD28B89F
3EA2CDBF
3E3C869F
BF405121
BE1610E0
3E448CCD
3DFF7E0E
3DFF265C
BE3D8455
BCF1684A
BC8AF21E
3E9476FB
3EA5DE9E
BF14DDBB
3C8FAE51
3E66CB47
3EA0663A
3ECE2F71
3E182183
3DBD0B3D
3E2FD915
3E6C4717
3E462B8E
BF0CD915
BE5A6C7E
BCC04B11
3DE0A0A5
3E8707C0
3F08B042
BE29F0F9
3DE32161
3E5DEF71
3E0FA5DE
BF19D53F
BEDF5704
BEF823CC
BF32F27C
BF19B51C
3B672BDA
BE2AE3AE
BE1AB57E
BE5EAB46
3E0E96EF

