BEB85C56
3B4F38CD
BDC3E836
3F282D62
3F06CF0F
3E4F5D89
3E08FCDF
3F2E544A
3EA7FB47
BDA822B7
BEBD07EC
BE2BF99A
BDF18587
BECF74A5
BECD4D84
BEA05E7E
BEB40FC9
3ECF62DB
3E62E729
3D01919E
BBE5CE97
BEBD9B2E
BEAB6990
3DFF4177
3D2921D6
3E045FEC
3DB1C146
3E882F33
3F1BF750
BD71D6E9
BE224F85
BD898ADC
3E8A19CB
3E921279
3EA64F8C
3E22BD30
3E317A91
3DD75D6A
3E3FC33D
BEB1DDD0
BE5C5C1B
3E91004E
3E73D10D
3EEF769D
BDF6E27B
BE69AE36
BE225D85
3EE3FC77
3E7DD10A
BF5150C3
BEBE9BC6
3E5D4289
3F019FF2
3E67BF89
BE657CF7
3B749536
BC223B47
3E8D7DE6
3E5E11EC
BF1843A7
BED4E297
BEF5F3F1
BE0CAD57
3E87FFFA
3DA1FA97
3D5A70A0
3DD38D49
3E0CC879
BDD5BD80
BE4B8A81
BE7E3F88
BE4BF5C4
BE692E99
3E17C906
3DA2187E
3E52E275
3D532F32
BE476DA4
BDDBE9FB
BC3D3799
BE6AAE38
BDFD6DB7
3DFBDADB
BB9A3488
3DA4A6C6
BE329BAD
3E1D2B78
3D8B9147
BE18B93E
BE8E0B39
3D4B32DE
3CCA774E
BDD0F99B
BE109902
BE8DDFAC
BEBC8F90
BE52E65B
3E5E00D3
3E702BAD
BC7C2732

