BE269C23
BEF127B4
BE647B87
3D964F10
3E8CEC8D
3EEBB52F
3EBCCC54
BD2A6E36
BDDCBC58
BF3F17FE
BE64BE4E
BD3CF26D
3E12925B
BEAC4506
BE33D172
BD7045AD
3EA8119E
BF0B7CB4
BEA60FB1
BF039E37
BEAF6A5C
BEBC3870
BE021F59
BEECE8AB
BE0BFE01
3EC00AC4
BE0037AD
BE9EC202
BF0832F5
BF07A53D
BF45B197
BF0BAA66
BEBCC5B0
BCC101AF
3EB8779D
3ED8433D
BEF0B200
BEE58CE0
BF52DFDF
BEE949AF
BF3E9F24
BF38FED0
BE8C7F14
3EA547C4
3F2F0838
3EF83E1E
3E309CE9
BE862628
BF522F68
BF519AD9
BF2E1937
BE740F4E
BF267CBF
3E6E1DAF
3E559FB9
3EA7C260
3C974938
BEF02362
BE895FDA
BF1F21A2
BF164CDE
3C71C51A
BE8218F8
BE78677B
3CA7892B
3E9FC139
BEEA1D74
BE95AB78
BD2D7709
BEDC7175
BF4EE600
BE4CEDE0
BF2344AA
BF1352A0
3D89F0A2
3A1F3C16
BE949658
BD107300
BEE9DEE0
3D19D92F
BF3840C0
BF4BD0DA
BF4E356F
BE8F0FD2
BE81BA7B
BE171415
3EAD49D3
BD8D80F4
BD176BE3
3E865E82
BDE88AA5
B948B0F8
3E039DEF
3EA81C58
BDE9270D
BDEC9646
BC19DC4E
BE8ABF50
BD85725F
3E964860

