BDA3D79D
3E2D4BE4
BE67B59E
BCEC86B1
BCAA8655
3E645B0B
3BAFC781
BE0B869B
3EC5C17F
3E6D1739
BDA49242
BE4F3B46
BF387751
BF0781AD
BE720B7A
BE286B56
BE8BFC14
BF2E86A0
BF392377
3D17F4C7
3E06FC03
3D8F3161
BEB3B70D
BEDD8DA4
BED5704C
BE318281
BE9FB88F
BCDE5BF5
3E7A207F
3E4A3EDF
BD8B3527
BDEB6C4A
BEACA43D
BE930498
3E735903
3E924002
3F239EED
3EFD590D
3F0F9884
3F2D9331
BE05F0BC
BED5B578
3D02BE39
3EFA5380
3EAF53BE
BD923B0A
BE84F12D
BEA682BE
BF1C6E0D
3F6876FC
3F138714
3F13E117
3ECC9F82
3EE33583
3E5FB44F
3E764A07
3EBC2B57
BDF08700
3E4A0A40
3F1F6F9E
3F4300CE
3F0ADC14
3EA09B31
BE6D87C7
3B772E93
3E948EB0
3E8BE49C
3E86CAAF
3DC5F0AF
3E64919A
3F6D43CC
BCFBF583
BE87C37E
BE9B497C
BEC7F807
BE9450D1
BE29A1EB
BE041E18
3CDE0AA9
3EC3C306
3F7D9652
BE546906
BE88564B
BD00AEA0
BDAAA0B3
BCCCDC50
BD43063D
BD081DDA
3E56D0C2
3F0BAD4C
BD22EC3C
BE800817
BEF2F13E
BE9C0208
BEC5E3E8
BE824500
BF0875D1
BEC8BC75
3EECE95F
3D65F42A

