3EC517F4
3DB2C46B
3EF523A0
3EC5FBB9
3F0A898D
3F16B7EE
3DD4906E
BE3E3771
BE36F406
BE8B4EDF
BD94AFF7
3E7897C2
3EAAD6B9
3E97B40A
3E7C5233
3EAC3E20
3DA62D0D
BD724606
BE9BF70F
BC2D656B
3E9A6A35
3ED5AC7A
3CD29C24
3E98E2B2
3E1C404E
3D86C89C
3CD31749
BB3D65A6
BEA98E3F
BE87D7DD
3F795E06
3E87CC92
3E6451FC
3D10AA3C
BDA6180A
3DD8208D
3E00DCE7
3E3382CA
BE9B617F
BEE12583
3F53E228
BF23FB31
BF08CE88
BF09BB68
BF11D238
3DC6010B
BE79E617
3D728D43
3BF129B5
3E1B8E4C
3F1C3E22
BEA22F8F
BEA2BF04
BEB8A87A
3ECE2414
3EC9E258
BE178579
BEE4A5C0
3CCDFFD4
3E9965AB
BF663434
BE9210F5
BEBC9A24
3EF77D48
3EF2E943
BDAAC61A
BEB0105A
3E17E726
3E3D15A6
3F2B7B8E
BF5B60DC
BE4CDB4C
3E0551C3
3E3756A2
BD4A5D2D
3D4267E7
3E530ABF
3EE80F36
3C04450C
3F09FD76
BF3824F3
BE17F65D
3E9DCA72
3E0C6427
3E65DC78
3E70907B
3E16F3B8
BE9627BB
BE6B007D
3EF4E2F3
BEAE555E
BF2675A4
BF6DAC2F
BECF761F
BE5A456B
BE948EA1
BF28DA35
BF39151C
BF293F65
3E3915AF

