3EE70C18
3D54DB7A
3D8788D6
BE8E2ABB
BF17B7AE
BF23E563
BEC3466E
BEE57D23
BDF8C128
BF3F8239
3EA6A356
3DDE5567
BE34389A
BEC54C7A
BE521289
BF12B19D
BF39D9FB
BF1A8EC6
BEE7B59F
BF30E083
3ED03C2A
BE12772D
3ED2A91F
3E725335
3EEC3BB4
3EDB02C3
3E5722B4
BE81DCDD
BDE65676
BF1B525A
3E84B4ED
3E8E0ED3
3DB4E4B5
3E9616D6
3EC9E4AA
3EBE9941
3E4AB7B2
3D4886A9
3D633B0D
BE6BED3A
3F1114FA
3EBD31CF
3D914C53
3D3A9F34
BED298F9
BDC0970F
3E8A072D
3CD6BCF8
3C54AEF1
BE1FD22D
3EE77FD1
BD833E9C
BE5080CF
BEDA2057
BEF2AFE7
BE2D53CD
3E882813
3E0990C5
3D287CE8
BE380966
BEA43A64
BF1DC0E7
BF260BF4
3E8F4DC7
3CA60FF9
3C82F75B
3E973FF4
BD988107
BC2B286F
3E29E528
BEFB452B
BEEE1DCB
BEBEE5E1
BDD08ADA
3E8E74F6
3D278910
BE934D25
BEF97339
BDF35263
BE3D7C57
BE527677
BDFC8B0F
3E838E2B
3D87CDFB
3EA711EB
3E83D8A8
BDBBFDE8
BF13A9BA
BE956B50
BE62036C
3E16EFFD
3E330F0B
3DFF1223
3E5E620E
3E8D6BBE
3E3DEE26
3EAFEADA
3EFBD37B
3C9CA7EE
BD9B1D08

