3E8DA259
3EDC942C
3E870A26
3EE59031
3EC7B22A
3EA85CA2
3EEAAC2C
3F117147
3EFBFDA6
3D4D0BAB
3E238D4D
3E68A59E
3E09F825
3DF159A3
BE1D4BD7
3DB02787
BCD0A352
3E014660
3EB31931
3E7159EA
3ED18767
3EBC48DA
BD9BD413
3D51990D
3E0A2038
BED5206F
BEE6B2E3
3DE84C5E
3F24EAB3
3DAD8278
BE806683
3DDA0DEE
BE8725C2
BBD8C814
BE2A6219
BE800AF6
BE10753B
3DEAD65B
BDF5B3C4
BF32FB25
BE1D974F
BECE210C
BD12043E
3E1BDDFD
3D41863A
3CC6C3B0
BB92A3A4
BD067395
BD66DE4C
BEAFF965
BDCEC3B5
3C58EF84
3E79D991
3E9B4554
3BBDAF7A
3ED17C85
3E8BF78A
3E843BFA
BCE739E0
3ED3A3F8
BEF32A83
BF0ABDA4
BE1219E4
3E0422CA
3EA14CD5
3ED3CD28
3E805066
BD0BDC41
3D8632AA
3E8DFAF6
BF21C2CC
BE2B37FB
BD6BE91D
3E43E715
BA1F4A9E
3D92E02D
3E90808F
3E4A3AEA
BE12A7DC
BE2A2B11
BF07932E
BED64844
3D2E5754
3DB896B2
3E254A8F
3D11E9FF
3E23F39D
3DE227C1
BE8B50F8
3EBE9406
BE129716
BE65F8CD
BEEA370B
BE00AAE1
BEE93D50
BEC82C39
BF41B29C
BF172248
BF232D5A
BEB1BD92

