BDA9CE82
3BC71D85
BCCE1DD1
BDB6CADA
BE00EDFD
BD8FB737
BE2BA785
BE01025F
BD61E6AB
3ED617AA
BDCB455C
3E15AE94
3E06455F
3E2D3405
3E9B08F4
3E5F5318
3EB88B5B
3C9EA2DF
3DCFAB4E
3E0B7606
3DAA6EBB
3E2A80C9
3E2066EF
BD41BCE8
BDDB5997
3E270E19
3EA209DC
3E03C643
3E957781
3ECFAC25
3E0F1317
BD840ED9
BC94B932
3E091CA3
3E9C19A3
3EF41945
BD34D8B1
3E489818
3E9C364C
3EC8A102
3E7E17CD
3CE694B1
3EAC4E3C
3E0EA439
3E644B69
3EBAC043
3A365827
3DCA010F
3B8C6E16
3F5A5ADF
3E2E94F8
3DED7A8B
BCF124DA
BE18FED4
3DDEFF8F
BCB3868D
BE117548
3DED8133
3E7ACB4F
BE507259
3F21FC59
3EF442CF
3DC0D4AE
BD8B4B89
BCBCABEF
BE0E823C
3D425519
3BC698F5
3E431617
BE0989AA
3F13EE1F
3CF2B233
3DDA05EB
3E75A2B9
3EDFE5C6
3EFB0789
3E5A86FE
3E949BB3
BDD346ED
BD0D40DB
3F135B79
3EC1F0FE
BDF505DA
3E6B01CE
3E15ED78
3EA4FE9C
3EE93290
BE1DF2DB
BE8B3E83
BD12EC39
3E8C342D
BDD9A4E9
3DAAB0CD
3EA16A32
3EE9EC44
3E2E7FDF
3EB1837A
BE36B3D2
3EA564C4
BE5407B5

