BD98FA54
3D98EFD9
3E901B64
3D71FF34
3E5CD234
3DF89B21
3D0FE361
BC53250A
3E65A6B2
3F21932D
BC2D5679
BDD4F34A
BE5367EF
3E5588E1
3D4F3C65
3E64A80B
3E4E9BEA
3DF91A30
3EC4D6B6
3EF32E13
3D3975D2
3DF84859
39A5E992
3D6B1BA2
BD76A887
3AB98AD1
3E00B2F8
3E9B39DA
3E93C24C
3EE6F6E9
3E8F0813
3E18757C
3E187CE3
3E8F05E2
3E164BB1
3EA40E25
BDEB1999
3DF012AE
3E89687D
3F3CC0FC
3E2F15D6
BDF71494
BE8D70B4
BE3998AF
3E5276FA
3EF77DD3
BE24A700
3D297F33
BE0E6583
3F6C9A9F
3E308DED
BEC45C1A
BD5F21FB
BE9186E2
3ECB0F6C
3ECE50AC
BEF756BE
BEE5BAA4
BF02BB62
3E825995
3EEA59F7
BE7C575E
3CB0CE26
BDBDD7D0
3E896D88
3DEF214A
BD60698C
BCD23369
BB96415F
3EC9A670
3EF4DC77
BD909353
3E184705
3E797CAB
3E9C3D0B
3E09FCC8
BC8DBAEC
3D874C80
3EF24DC1
3E437615
3DC25CCA
3DD22F23
3D817D6E
3E35F456
3E7922C4
3D9AA088
3EBE12D7
3E20AB4B
3E554520
3E124868
BED67CFD
BF482F67
BF159EA8
BE5C45C5
BE94976D
BE681036
BE843E40
BDAA9D99
3E786943
BE608BFD

