BDD2C8B1
BE735A58
3E1A42BB
3E4723D4
3EE6F67B
3EC9CCDE
3E8A649E
3E6246BC
3EB14E0A
BE8A073F
BD417B86
3E10E572
3E5900B7
BC96E4B5
3D71A5CC
3E3F06FD
3DF279D3
3EA3F7A4
3E51F02B
BEB4AB86
3D5DE651
3C26F57C
BCDC1CBE
BE76026C
BD98131C
3DCEFE40
3DD939E6
BDA7CF96
BCA6123F
BD38D142
3DB2E92E
BE3B2DDF
BE31F790
BE052458
BE168DCB
BDDBD94F
BE0603F6
3D247049
BE98D1A1
BF00490A
BE371307
BEAE1793
3D9E3BA9
3CB82F29
BE6662D7
3E9AF58E
3E2A00C4
3E356044
3ED94A65
BF03CEEE
BEF6FCB9
3E26104E
3EFD869A
3E332A28
3E989260
3E962C40
3E3755CC
BE49207F
BDD1E449
3E93351B
BEFBD65B
BE83A5C4
BD91C48E
3E87FDEF
3E9F5B6C
3DBA4E3E
3CADFA8C
3E6617D4
BDCAA7B5
3EE8A65F
BEE645CA
BE904D0B
3E2D381B
3CC3B434
3E162BEE
3E85E4D7
3EFD9551
3E69DE77
3DC90142
3EBD7D50
BEF80EEE
BE2D7568
3E3CE934
3E13FFB0
BDEFBB3E
BDA83999
3E418547
3E137EAE
3EBD35B9
3E786BFC
BE8223CC
3D7BFCA9
BE10FBCF
BED4F477
BE370709
BEAA7DA6
BE1D3851
BE45DCDD
BE9EA2DF
3EAE4611

