BE77C4C3
BEE8075C
3C6C50AF
3E0289D0
3D56AE37
3E16FA31
3ECC743F
3F17049F
3F39A7E2
3F5F1ADC
BF1A6C49
BF191B30
BE165537
3E0F1CEB
3D5F6104
3DA79C1C
3EB331FF
3EDAAC74
3F252E15
3F1DD222
BE77760D
BF1C959A
BE2046B4
3EAC996A
3E82D392
3EB2F155
3EFE8222
3EEF053E
3EA73837
3F63EC08
BF640DC3
BF166720
BDBFBAC4
3E2F85E4
3E7665BE
BF048F20
BF4B4EBB
BF59A620
BF30D84D
3EC61F18
BF5508A4
3D84C9D9
3E6E70F3
3C87E759
BE904802
BE35BEBB
3CFFE0B7
BE773ACD
BF3E5455
BEC02278
BEB57273
BE8D7B27
BE304B70
BC5967AA
BDB6F94A
BE2B4C8F
BD67561F
3E200F50
3DA15AA8
BDCD4228
3F1DAA29
3DF0EC85
BF15AFEE
BEA90376
BF2A1E71
BD83077A
3DD7D486
3E38EC85
3DB5476C
BD3E97B7
3F304947
3EC6AD57
3DB9A180
BCED54FA
3E58DCD6
3E8BE095
3D3D93CA
3E297D8D
3EC0B700
3E1C96A5
3F5B9C25
3F010513
3DADD914
3E992C20
3DF59A35
3E22289A
BDA672F9
3E459245
3DFAE153
BDEF29F7
3F072A65
3E5B1698
3E2F7705
3F24AA9D
3F442E15
3F138635
3EC56E4E
3EEEFCF0
3F13D09D
BE3AF67C

