BE46F3C0
BE941A5F
BE2DBF83
3CD865CE
BE81D52F
BEB990B5
BD699813
3E73E62A
3E83FC3B
3E06FC0A
BEB4A4CF
BE602021
BE246B8F
BEB78270
BE8B8597
BEAC6D60
BE4FB977
BE821BC1
BE85E3ED
3D1B03CC
BE93BF58
BEFCC899
BF0337BB
BE6C0EA8
3E6C9644
3D00A8CE
3E9A17A8
3E812197
3E72DF98
3DE6E849
BF2FB095
BEE40C95
BEA71ECB
3E274E09
3D86D616
3E8F9F65
3E8CF91A
3E733AA1
3EF46045
3EB04F68
BF20CDFB
BE6BA7E8
3E5F7CF2
3E900D33
BEAFE97B
3E53FB51
3D7A3AAB
3E17A83A
3E4CF56E
BE3BE98B
BECDD469
BE0BA264
BE791BD1
3E033A9A
3EB65606
3EAD7805
BD524274
BEDE7890
BE745392
BF03BA13
3CBFBFA3
BECEBF27
BEA6291E
BE80527F
3E53C150
3CD4D2AF
BEE47B19
BF08AD3A
BE8C13FB
BE946B2D
3DD1077F
BE879010
BE2051D7
BE8CE0D3
3CE50640
BE5B4710
BF37F13A
BF05FF38
BF1723C8
BE8F389A
3E0E02BA
3D8AB96A
3E682467
3E20E69C
3EAC3B40
BD167607
BEE8EC38
BEB79E37
BE4B5FD4
BE9CC321
3E8DB6DD
3EECD100
3E415B50
3E353535
3E81E78A
3EDA8704
3EB43EFC
3ED92999
3E999074
BE81B596

