3F1EAA89
3ED63971
3E262D67
BDC6BD62
3CA35878
3EC92D82
BDCA7CD4
BF1245C8
BEE1D07B
BF0B9BDC
3F41581F
3F261335
3EAE9F8A
3DB80247
BC3F0D15
BDA033BC
BEBC400B
BE963A6C
BF2B1B9D
BF0C2D6F
3EB7596E
3F1FFABB
3EA7BA94
3E3275B5
3E457391
3D914A70
BDB787A7
BEC664D4
BE77654C
BEC5F375
3F5D51A7
3DD32C17
BEE26DDE
BF24B40D
BEB58F32
3EE5361E
3DAFC97B
BF2285E8
BE47C365
BC4E3A45
3F50E381
BF1DD44B
BF7F791E
BE6CCDB5
3D4123FA
BCAF2107
BDCA26D2
BEA2036D
BE2897EF
3ED6554A
3F3E8E42
3EBCC722
3E939C25
3EE46697
3E894D3F
3E1E5F7E
3E1AA685
3E9BECAF
3EB5923A
3EE8BC35
3F399B37
3E915805
BE5F35DF
BE92D0B6
BDAA0C22
3EB9C00D
BC690619
3E823759
3EE06228
3F5EBAB5
3EF08D10
3DAF40EB
BE99FD4A
BE80F7F8
3CFB3EDC
3DD84645
3E574D0B
3E2BB99F
3D897BC3
3F310A13
3F09B41F
3E9FB1CD
3E72B646
3EA6043E
BD20870B
BE2131CA
BE54716D
BEBF44F7
BE09A276
3F59CE82
3EB8948C
3EA22F4E
3E93D769
3EC8AF76
3F0F01A9
3E3EB6E4
BE042E62
BE529C40
BEE7E637
3EFA0C54

