BE1B7476
BE8ACAF5
3EDAE7F7
3E9D144C
3EF94D37
3EC4D2A6
3E56901F
3CF89AD0
BEAC1E35
3EE3ACD6
BDBB6152
3D26FD84
3E6BFF27
3F09C881
3E92D7E8
3E35EDDD
3EFAB9BC
3E20F636
BEA2A8B1
3DB24ABE
3DD7B0DA
3E0B644A
BEA1B311
BE38DCD6
BCD9AC98
BD064B03
BE971803
BE9C173E
BE9F2CB7
3EA4936F
3F3EA579
3DCC4E4A
3D92B698
BBC8C94E
BE0EC6C7
3DB2C153
BE52C75D
BE6A14DC
BE46BA65
3E722100
3EE8661D
BD4A55C6
BE6112C3
BD53AD75
3DBB6EC4
3DF85F55
BE9826B6
BE07D723
3E7868C7
3F0AE81F
3EBBA2C2
BD67DB38
BEA6DBAA
BDF23AAB
3EA4F363
3E201517
BE2872B3
3CEB35D4
3E279E46
3EF68498
3EB929F0
3EE71EA7
BD99130F
3E260848
3ED0E9A4
3E373AB0
3ECC81DB
3E726AEC
3D81C3BB
3F3F2A9B
3ED91F3A
3E8C682F
3EC67090
3E81601C
3E7F90B4
3EE864E9
3EB5B3A6
3E819C25
3B8B4FCA
3F4CF36E
3DFDB9C8
BCF550AB
BE7E7232
BE880BDB
BEC0FCD6
BECA2C00
BEE24391
BE8590C2
3B21AB77
3F0F66AA
BE8BC835
BF018AB3
BEB84BED
BEBB910F
BD9A1AA1
BD61DA86
3E2A079F
BDEA09BB
BEC76F88
3E910790

