3ED443EE
3E0C24D9
BC0827EA
BCF555C9
BE8ADFFC
3D1B45ED
3DEDE50B
3EA0BED4
3ED07D13
3EDAEF3C
3F0F9491
3EB821BE
3EAB94ED
BE51E367
3E95F87F
3E1BB805
3E3DA115
3E88D869
3EA59E5E
3DD5BA20
3ED9F8C5
BCBD49A7
BCB11937
3E7ADCC3
3EC3D6E1
BC2CF670
3DB034DA
3DBBDD18
3C338BF8
3DA01F03
BEB3455C
3E4C4C34
3D97D1B5
3E19D2F2
3DCD2352
3DC6D65A
BDC3689C
BDF3C031
BDCBFBA4
3D2965DB
BE997BE8
3E5B9B41
3E8573EB
3E6CAA61
BD97B058
3EE2DAF0
3EA8FFAC
3DFEEB41
BEFACB98
BE59CFB8
3E54A1E9
3CE91D4F
BCA8E355
BEB2CCB2
3D374506
3F00154A
3E6C255E
3E56CC86
BE443EED
BF031D27
3EF4D9B2
3D96DFAA
BDCEF5B6
BF058A2D
3CD715CE
3E41F88C
3C512318
3E411C08
BE107F72
BEC3D843
3F1EF4D2
BD1FFF15
3D86844E
BE194E25
BE103030
3DE63A72
3DEBDC65
BD134CAC
BEC6210A
BE9371DB
3F26F5E9
3E22CC99
3E4ED8AB
BC912687
BEA16E41
3CCBEEE1
3D3313E2
3E0657DF
3D3EF66A
BE957E26
3EE76A5D
3F37CCE1
3EE8608C
3ED766BD
3EE82B5F
3EACEFA1
3E047560
3EF9A23C
3EC551E8
BE7DA3D4

