3D2F604C
BCA78465
BDDCC6D5
3E7A9825
3D8C47DC
BC8C971E
3E61B800
3E6DAE15
3E3AEFC3
3E9BA9EE
BED1DF83
BEA3986F
BE98250A
BE264FCC
3C0BD2EE
3E3BBCEE
3DAEB5BE
3DD015CD
3E54580F
3E100E30
3E15CE71
BE1D13C2
3DF93F8C
3E551F93
3EC1EE13
3E066D3F
3EB97B72
3EC1B57D
3D06760F
3F001C4D
3E68F416
3D5F45DE
3E53E0DD
3ED61E8A
3E70FD1D
BD5F2DDB
3DAB1FBA
BD2049E1
3EAC60BB
3ED2FED1
3E7DEA34
3E07972A
3E36B5C9
3D14BCF4
BDF82395
3E09B9B5
3E02F6A7
3E734DD0
3E84B795
3EE429E3
3E42C9BE
3E440E67
3D9C1B99
3CE3E1AB
3ED48DD1
3EDB2AC5
3EAA15D2
BE1F63C3
BD7FB66B
3F25821C
BE5D94FC
3C738477
3E56F697
3CC36A61
3EB36443
3ECB6B94
3E1EAE39
3E0C5C35
3E5F68DB
3E72A733
BE1DCFD2
BE22EA53
3CA6EFDE
3C35941D
3EAB94F8
BD045CC1
3E8D807B
3D7096EB
3E9DFFC7
3E8ABDFF
BE5C3A96
BCBA7D29
3E9125DA
3F098EF1
3E53EFD1
3E90823B
3E47F5D2
3EF5FC04
3F18687B
3F1B55D5
BEF70348
BE9CAA7A
BE1BA83C
3E208A10
3DB4F6EB
3EB1D836
BE09EBCC
BB096F19
BE2A3E54
3EA2FCC1

