3E90A7FC
3E88F4BA
3E459D6E
3EDB16BE
3F0EB202
3E0EB532
3E1355D0
3EE5EC94
3EF601AE
BED9BF40
3E8D7C7B
3E6DB88F
3D564A3D
3E0B3480
BD37F377
BD70A86D
3E0D0ED8
3E05BECA
3E462D48
3DC4984F
3ECBD0A0
3E1C7253
3EAC2A1C
BCBB1973
3D0EC28C
3D3579F2
3E146012
3D0CB4E8
BCED397F
BC0BF4C1
BCE6128B
3E5796B1
3EA5296A
3E16116B
3C716105
3E38F927
BCB6D69D
3E361835
3E6B2B9F
BF1B05C2
3E3F3B37
3B7B8E0F
3D7CDDC0
3E281E1D
3E3F4ADD
BEB2CC5C
3E8596BB
3D47F065
3EAE3FE9
BEE6F703
3CD68F91
3DFB5FA8
3E5D41E7
3EECEBD6
BE08E681
3DFA12F5
3ECF39EA
3D8EF64C
3E799F1E
BE9BDE9A
BE546A4B
3DC2EE19
3EC6B8D1
3E4FADEC
BE12212F
3E3299D8
3EE40ABD
3E9C1A4C
3E874943
BD3589D1
BE0C63C7
BE1CC66A
BDB6C006
BDFA48B1
3E635FA6
3E7C8067
BE6B8611
BDF1011E
BDFE6146
BE1C3145
BE70F92A
BE62C6FF
BDC8F6B0
3E5AD2CF
3E4B0E01
BE29E919
BED9AFC9
BF39D75F
BEF59446
BF0F46D5
3F344970
3F2C784F
3F18D773
3E6A161D
3E7DC76D
3D3E7CB5
BE92AF58
BF297085
BF1C1A0D
BEB5DCA0

