3E0E2F01
BE969CB4
BDAC25BA
3CD5BAC8
3DF8FD81
3E87D516
3E37E133
3E7DBE23
BE2F20B1
BF095F2D
3BE570F5
3E4A99C1
3D999718
3E134E23
3CFA6E19
BE6851D9
3CC265B8
BD9A7D33
BDBEB886
BE2AE2F7
3E4CD345
3D8A8168
BE95C628
3E2D4818
BD8F4355
3EA64752
3E083545
BDA4A9DB
BE8B8588
BE9076F4
BE53F927
BD04A5CA
3E08A82E
3CC89AEA
BC92A78C
3EAD4477
3E9D5C85
3E39717D
BDE98FB8
BF1295A6
BEBFB024
3E0A82AC
3E97C169
3EAE6968
3E084AB6
3EE592C9
3ECE0A91
3EBCA26F
3E9479C8
BF614949
3CC5C296
3E1C0326
3E6522D8
BD9533F9
3E3DA815
3E50B42B
3D2B59F3
3E42539C
BD06B0A4
BEDFA659
3E6632CC
BD8FFF90
BE4B1244
3E1E1F02
BE7D2129
BE1CB351
3E5719A1
3E14817C
BEC2CE1E
BEBF2409
BBC7E589
3E19CF63
BE5BC273
3CBADCFD
BE87F590
3E773A09
3E2128DE
BDDC7D72
BE8E7B54
BED72DCB
3EBA9F9D
3E4E89C9
3EBCBB27
3DC3A57F
BCDD870E
3E86D532
BE05630D
BE2D5EBC
BD1F53C9
BED3CC71
3F2F11F6
3F20981F
3EF98999
3E8DF409
3E6E4ED8
3E64EFAB
3E0D3E10
3E6BB50B
3DA5D96C
3CFF26FD

