3E859649
3E847E85
BE265D29
BE72CA63
BE89F2C9
BF007BD5
BE6559B7
BE783EAC
BDA7DFA0
3EB4C4E0
3E24136B
BD094AFA
3E28D600
3D012398
BD53806A
3CC74222
BD6A9DF4
BDCFEF6F
3D2E5A51
3E2A0764
3E32A9C2
3F01CB2B
3DD1D613
3D3F4E36
3E58FF6E
3DB132BB
3E21E058
BD9F905E
3DFD055D
3E18EAD5
BD12C6F4
3E656059
3E78EC3A
3CB08924
BEADD45A
BDA7AEC4
BD96743A
3D418D44
3DE3E5F9
3E7533B3
BEE7EA9E
3CC2C05D
BE7AAFF8
3E980353
3E256995
3D09E92E
BC88CAB0
BEC7FDF9
BEFBAB2B
3DE96266
3E323B9B
BF0EC6D5
BEB08D48
3D2FE8E9
3F0F8056
BA855580
BDC95CA9
3BAEC984
3D045DC0
3E37E50B
3EB66B48
BE115A73
BF398BD0
BF4E977A
BED311C1
BE994532
3E8D1CCF
3E3BCBB2
3ED0AB27
BF2F00E5
3EB36B8C
3DF8F4D8
3D52D492
3C39E334
BE8505FA
3BBFE394
3DF78673
3E11433C
3E0471F2
BF0D0605
3F4796D2
3F129146
3E5F89E7
3E905304
3EBA8941
3E2EBC78
3E144441
BE7A1CBB
BE167C3C
BF349189
3F079D1D
3EE4DA4E
3F1726E9
3F2AC24D
3EDEF416
3E836AB8
BE223034
BC47C211
3E7CD51F
BECDB2C2

