3F00AFC2
3F43DC8B
BCA39AC7
BBF445CB
BEC18FDE
BE071F64
3F6CABF5
3F387779
3F222676
BEB06501
3F16AC8C
3EB94552
3E02F468
3ECEAE4F
3E1C0B5C
BD8EB73D
3EECC098
3E1CE594
3EABA7E5
BE3EC6E3
3F48DFA1
3ECB4FAA
3F02246D
3E803FFA
BEEDAFA4
BF14DED6
3E8CF8C0
3E700D3B
3E556F65
BEB64C61
3ECF1AD7
3EBD7A1E
3E2847E5
3EBBAE65
BEBBFD35
BE272FB0
3E8E6681
BDBCE271
3BD09016
BC889A1F
3F1967F8
3E04CBD4
BC8639F5
3EBDA736
BD97B9EB
3D6854EA
3C9B7322
BD763390
BE62B2AE
BD29DD93
3EA0E9FB
3DF0B2C8
3D5C6A0C
BDCD584C
BE4048BB
3DCFC896
3E9BA705
3EB1A636
3E1E20BC
BDC6848D
BDC023FC
3E796A78
3D84175C
BEC762D0
BED416D0
3E9FDD81
BDD6D1BA
BE0ABBA4
BE99BAFC
BEC079B3
BEA36BD7
BE5B10F6
BEA7DFE9
BF266068
3D2247D9
3D63FCBA
3E14957B
BE455737
BD236C13
BE59EF3B
BEC7B790
3CEB248D
BEEA5049
BED48DA8
BDE1898C
3E9457D0
3D60700A
BC686AC5
BDEBD882
BCE4B0AB
BE88BDA1
BD8F55DB
BCDC8276
BE46C71F
BE69E5BD
BE4C52E5
BCADE1CD
BF05D142
BE98590C
BECB2F6C

