3DD08DF1
3EAF3AAD
3DF3D1DC
3BB8AC9B
3E74CA31
BE0873D8
BDF00EF5
BEDFF940
BE801FD4
BECBC5A5
3E837CD2
BDE224FA
3E155A82
3EC29A1A
BCB7940F
3DE53C27
3E035C47
BE6B123D
BEEA31DD
BEEDCF73
3EC7A453
3E514D2B
3E803351
3E5C2B14
3EDE65EF
3ECED987
3E229BC2
BC09A2DC
BE81C92F
BF11DFAB
3F16B0AC
3E2195A4
3BBA9908
3E40B7F3
BDE646E3
3E223E6D
3EBC72C1
3EA28278
BEB3468B
BEB9C75D
3F31D5D4
BF11163A
BF29978F
BF2281DC
BF2DFD2D
BEED89A2
3DCE2216
BE466B19
BED9442F
3E2E99DF
3EEF7337
BE9BD631
BDE48B0F
3D0C16BE
3D3EEB27
BDB75C92
BD9BF0FF
BE3D5850
BF0FD651
3E8A7B5D
3D05BBAD
3E32D9DC
3E3D0947
BDAD56E1
BE240338
3E2D0793
BE26C364
BEBDF5AD
BDD02AE0
3EAF8465
3E6DD88E
3E5C79F3
3D12B893
3E110C22
3E882857
3E0253B4
3BFD1325
3E19A4CE
3CAC9319
3E6F7C6F
3CAE41E7
3E7FB1EC
3E97F7F3
3DCE3970
3D3E1AAD
BDD9E62A
3E862AE5
3EC981E9
3F0BCF44
3F398C0F
BE838DDD
BC8E45D4
3E1E9B54
3E77D6A6
3F0AFCA9
3ED8010C
3EDD989B
BE092CC4
BE8A216B
3EB9BFD7

