3E885F80
3E1D5B95
3E98CB87
3D4B1EC3
3EE69EA7
3E89F32C
BD02E273
BE9430F6
BCE1310C
BF20FEA5
3E13C709
BDAF2636
3E2ED3DA
3EAC92C1
3E8082D3
3DC36E08
3E17AE4A
BEA3D3C6
BE23E24F
BEEE3389
3CFF31E0
3E6FC19D
3D8B52BF
3E23EE37
3E312B5F
3EC4924C
3E34A255
3D647371
BEA035A4
BEA508B8
3EE14E7B
3E421FC5
BDA8B66D
3E3E9A8F
BD67011E
BE8F686E
3E3E424D
3CDD4924
BF20A17C
BF74E0CA
3F0DE930
3DAE3F74
BD998E05
3C673E6F
BE4A67E9
BE08C08C
3D9283CD
3E2F97F1
BCF634C4
3E2C2838
3E81BC6C
3DD6F5B6
3E253A33
3E469A05
3EABDE32
3D949FEF
3E6627C7
3DE5B7EB
BD92DEAA
3F343000
BEF38F99
3E9BE7AF
3E0E153D
3EC0600F
3E84B66B
3DCBCD93
3EAC2697
3EA29207
3E4F9F4C
3EE4FE20
BE885FEE
3E16BD7B
3DC7BB6F
3E99EBB4
3E73F3DD
BB30154F
3DDDC8D1
3E0147EC
3DA8169A
3ED95A47
BF127B8A
3D802BF4
3E732F67
3E235532
3D606270
BD5D56D8
3E0396F0
3F14B88E
3F23660A
3ED0827D
BE44ABD0
BEC71058
BEA8906F
BEE4E210
BE5E9CCB
3AE5ABD8
3C99E03E
BE41D3E4
BE415BA4
3E227B8C

