BF236F1A
BF56CCC4
BF428B7A
BF72985A
BF3E5D33
BDF6C089
BE34A780
BEE9D414
BF41160A
BED7DE60
BF1552AF
BF35B304
BF615556
BF70316F
BF737C9A
BE9F52F9
3EBB4367
3EB3BD43
BE22BF6A
BE4B4655
BEEFA781
BE96889B
BE074E80
BE2193F9
BE62EBB5
BD541604
BCBD138C
3EBE64D0
3DD6C439
3DDD5BAD
3F38DC3B
3F2D24CD
3EFDCDBD
3F191A95
3ECB48A5
BDC9E857
BE877790
3DE7FA95
3EEF4A40
BD966644
3F389305
3E5FC5BE
BE17DDC9
BDA3C86E
BECFAB84
BE1F6D6D
3E118A45
3EF11D3A
3E6735DC
3E305154
3F099067
BDCB2DC8
BD75D9CC
3DCDE78D
3E3EE353
3E2F4EF9
3E81EBD0
3EB7AAEC
3E6EBC40
3EE6163B
BEBC8962
3C8DE21A
3D74A990
BD22E619
3E788B77
3BFB6003
BE044717
BE42EF13
3DEE2CFC
3EC4F0F5
BE934CEF
3E8280BD
3B107528
BDDDCB28
BE4C11C8
3DEB2582
BBA72764
BEA1471D
BBA7DB83
BDB86107
BEDF1970
3D3F363C
BE04896E
BE172954
BDF42B70
BE3D4F9E
BDC3A702
BE78A81B
BE82F50E
3E54267E
3D5D34F5
BED11A81
3F1051F1
3F1A6D4C
3E78495D
3EB53683
3EC72107
3E3CE0DF
BEF22FE1
BE43BC5E

