BF14C762
BEB7A236
BE55C5FB
3E813240
3F1CCAFC
3E5231FA
3ED10723
3F1936EA
3EDD759B
3E02862B
BF379A7B
BF2AC8B0
BF213686
BDF2F541
BE14B9B3
3E2C4671
3E579913
3D99ACFC
3EB2D79B
3CCFC30B
BF11DB64
BF049593
BE74C7C1
BE68B633
3E8CAFE2
BE970343
39A3ED23
3D7068A2
3E745A3A
3EBF8A47
BF01445B
BED0905F
BD07352E
3E501C28
3E51B4C7
3D0B324D
BE2AB5C7
3C041EDF
3EBEF9BA
3E66C6F1
BEE43809
BE957DF2
3CD76DD2
3E45BFF1
3EAA7A60
BE9A1598
BE9F6843
3D6A4CC4
3EDE7ABA
3E93E81E
BEE60535
BE77A946
3E3777AB
3E45016E
3EC0D3F7
BEA553D8
BEBE9318
BCABD803
3E3F73E9
BD8C24C1
BEADBC0C
BE21F77F
3E2BA153
3E6499EE
3EC4A900
BD406FD5
BEC8E788
BD3CF3F3
BDD623E5
3E6B3434
BECF4744
3E06F175
3E9B16A3
3E8CC369
3EBBC829
3E366BA9
3DE73A7A
BCBAA8B2
BC047613
3D8B8F96
BD9BA744
BE1A5268
3E8C019B
3E741DF0
3E83A1F8
3EC9D386
3E1853D4
BE0F6B2A
BEAC88E2
BC2A4024
BEB0CEF2
BED2AC52
BF058260
BEFE5F88
BF0EC1B4
BEE4FCAD
BEE62159
BEF5CCE5
BD60C004
BCC1C83E

