3D2EB886
3E58E206
BE62EB8F
BDBD45B3
BF4231AC
BF24EABC
BD88904C
3DA69E6F
3EF0A91C
3E9A2373
BD89489F
BD43039F
3DDA3ECE
BD8ABACD
3D19D5BC
3E523DF7
3DF6C97F
BD97F0A3
3E4D26EC
3ED518FD
BD506DF1
3CD554BA
3EB8736A
3E562DE1
3E28666D
3E939668
3EAE4218
3CFF50E1
3D359995
3ECD9B12
BEFD821D
BE8ED123
3E924421
3EBF4FF9
3E919462
BD22AE53
BD22C85D
3E9BB838
3F06AE00
3EC4D1A0
BF01A50F
3D826240
3E27F306
3E332483
3EA976BC
BDC505D3
3E00B709
3D747978
BE657BDB
3ECBEAC5
BDA6B17E
BDB77DC4
BE95351A
3E5AB8B2
3E3B916F
BE2F3001
3EE5A09E
3CE3E42E
3E1F6496
BF154655
3EDC230A
3E31F02A
BE312FF1
BE079D8C
BC545241
3D181090
3CAB7925
BC2F7807
BE0559F4
BF1C2426
3EFD784F
BE726B6F
BDED50DE
BE7F8884
3D9037D8
3DDEBDB1
3D56E7E7
BE8A2ABB
BE82F0A5
BF2A5AF0
3F35A8A9
BDDABB0A
BD5F681F
3D7C6DBE
3E45B134
3E171338
3D6A04B2
BC969617
3E46F573
BF47576B
3F0D717E
3F10C4EB
3F0AB7F8
3F03C042
3EF0BCC6
3F3BD037
3F88D1A0
3F1C5BE1
3F027547
BECFEB33

