3DA661E9
3DE5C1BF
BE8505B6
BF3AF92D
BF16D148
BEA99309
BEE81D52
BE974C5F
BE268AE5
BD85DF91
3E23ADCE
3E96BC09
BDE0BF29
BE59FCC1
3D9C33A2
3E03D289
BE019374
BEA4192B
BF16D958
BC81F23B
3EB0E1D0
3DE67457
3E583898
3F05502B
3EE3CBAF
3E9C2462
3E8D3669
3D09BEE8
BE2B47C8
BD9EBA45
3ED0AF07
3D6ED469
BD10328C
3DFED547
3ED2FBB9
3E79BE03
3EB4E8D6
3EE46F57
3E24F7A7
3DEB1151
3EFE15E9
3E06430B
3E5DD931
3D9DDE72
3B054B03
3EF41FA7
3E8602CB
BDA69858
BE0BDD5D
3DE6B4EC
3E9E1A61
BE4255AF
BDF02CFF
BDBD6265
BE81F9CE
3E30112C
3E6274B3
BE373699
BEA77C5A
BED543C5
3E4F0719
3D71494E
BD2DE30B
3DC7CC90
BD589051
3DD8B0ED
BE87ABB1
3D8E9B6B
BE89BBAF
BEBE1500
BC680610
BE40A567
3DCCAC1E
BE92C39D
BE379724
BE89496D
BE921415
BE1105B5
BE096471
BECF2959
3E119230
3D30D219
3E2F4D58
3E7E0F6D
3EA1894C
3E86A316
3E21FA70
BDE18C63
3D131F81
BE806781
3ED57D4F
3E9C6E0A
3EAA04D8
3DA9ED2C
3EA37781
3ED5A271
3EE69C76
3F33A3E4
3E9EC846
BE602088

