3EB8071D
3EDFD385
3E056DFA
BE85145E
BE907767
BD0F42D8
3EB783DF
3EF5A117
3E784591
BEE91A3A
3F12C500
3EBD2452
BE19926B
BED021B0
BED9ECEA
BEB75EB6
3D021952
3E6585E2
3F03B18A
BE808FE0
3F10551B
3D7DD18B
3B6A8518
3E3FC34C
BE157EB1
BEA8887A
3EBF704B
3EB6CD22
3E056B26
BF00779D
3DE9D2EC
BC144E2B
3DE9763D
3E482D7A
BE8D2A35
3E9CF468
3EB57631
3E2C33F4
BE9F7F85
BF4ADA02
3F1A7349
3CBAC02A
3D4F6BEB
BDB6B4AC
BEF00D4A
3EBD76A6
3E5E74BB
3D3C34D6
BDA2D8BD
BE8BA04F
3E94F4A7
3EA86B22
3ED52AF6
3CBCE494
BE9532ED
3C8ECE68
3DA33F82
3E5B1235
3ED8B1FB
BECEC59F
3EAE7AD8
3D9D94E9
3D94C732
BDE16215
3E4EF26F
3E111B5E
3E1E71F6
3E804F12
BE80EC7E
3E066E31
3EDCEB99
3D48B96A
BE96DC6E
3E2D8176
3E08CCAD
BEB0EC75
BE3D03A7
BE7D5044
BEA1021C
3E9A07EE
3EA3BCE2
3E4869EA
3ED2AF39
3E5AA034
BEA35884
BE092E11
BE64EB8B
BE94730D
BE2410E4
3E896F12
3F171712
3EDDAC2A
3E9462CF
3E39E33C
BE306DEF
3E2F3142
3E7131D8
BCCCB80D
BC928D78
3C549BBB

