3E29D72A
3C9D1D97
3E6F782E
3EE59AF1
3D985B95
3D81ACFB
3E9A0E27
3D26C55B
3E7165EF
3F1EC189
3C8AF8CE
3E51995B
3EBECAB4
3E0DA57D
3E63DA03
3E8CEB9B
3F023B68
3DFE1959
BC6E3140
3EC6F7EC
3D2E9C05
3F04B208
3C1655E0
3E1AB63F
BBE20B23
3E61DB72
3D85EBDA
3E6544DF
3E00FBB3
3EBD98F5
3E33AD61
3D5448BA
3B181FD1
3C29B702
BD5DC5E4
BD56C37E
BE269F44
3E76DA5D
3E90BE3B
3EECF1B4
BB335E35
BDBCE623
BD8A8B35
BEA0D5C4
3EA5D7D7
3EB1AED3
3C4C7BD1
BDC3AD0F
BE09663F
3ED4D1E6
3E334DDF
BEC13465
BE8D77F9
BE424461
3EFD7730
3F0466CE
BE8A8007
BE23EC86
BE2189BB
3EE5556F
3E220891
3E887179
3E920CD8
3D82FE99
3D9E2D4B
3E85C547
3DB487AA
3E2AD673
3EA98A64
BD4D9004
3EA2F649
3E82B170
3D56B419
3E0395DE
3E927286
3EA6CA5B
3EA6DDDA
3E909325
3ECAF57D
3D3197F4
3EA5D1C2
3ACB7B9A
3DCB7541
3CE83409
3E80E45F
3E8D7823
3E723969
3E1C562B
BDB5EDDB
BE127471
BE9671E1
BED01131
BE14D664
BE3BD43F
BDC5F3F5
BE4E1FB1
BD83B538
BF099781
BE0F5D33
BE29EF9E

