BCD470BC
3E42DCCF
BE2991FF
BEF7564A
BEACB608
BE14E8E0
BEB215A5
BE98D44F
BEF1E4A6
3F23166A
3E7303E1
3D08B119
3E4ECF09
3DB6838E
3D4C9A50
3EBBE6D3
BCCBC9D1
BD3CC648
BEB509C2
3DCA0C21
3BB6F2E9
3E1AF065
3DD983FD
3DC01F48
3DE94538
BE27E8AB
BCE9E4E4
3EB7CEF0
3E3A6166
3DA469E8
3EEA23E3
3E805EBE
3DC4BBDC
BD528061
3F079CE2
3ECA45C1
3E4C83E9
3D064066
3E7FFBF7
3F310C12
3EFA9CDF
3E8CA106
3E101A90
BE1C52BC
3E5ADAD3
3EF83C6B
BE51FA43
BE676407
BEEE9E49
3E8D35B6
3EED5F89
BD21D048
BE25E154
BE476148
BEB05112
BE3DA7FE
BE217CFD
BC8E3670
BDE736FF
BED415E7
3F5B2BAF
3E0058FD
BD61A549
BE86AF96
BEC97C9C
BD029449
BCCC1644
3E5675BA
BCD13E13
BE9BE7CE
3F285C86
3DF47125
3EC36BE4
3E6F8A64
3E32EBF9
3EA0B707
3EE6283A
3BA5B235
BE1A974A
BD9BEA7B
3F51001A
3EE6B445
3E4B505F
BE07589B
BD2DE093
3E2E7C33
3E668E19
BDCD8FB6
BE8C47DB
BEB5B8E3
3F0DC8CE
3E9C65AF
3EB2849B
3F1AF5CA
3F0F2A1E
3E8DFA5A
3EEFE523
3EA8CF3C
3E66F059
3E3DD199

