3E59D862
3E931BFA
BCBAD77C
BE0FC58B
BEAC44B5
3C70B5B9
BE8C85A0
BEB2F954
BF120A66
BF0F75F6
3F0D51CE
3E0EB078
3EE31241
3ED688D9
3ECDAB70
3EDB00A6
3EB0796E
BE682A4F
BEFEDCF7
BF3C9A37
3ED2ADCB
3E8A4B99
BD6325F7
3D7EB7B0
3E1172DC
3E781F76
3F039D82
3EAC53C0
BE26AA29
BF474A53
3F0E75D2
BD5BB86C
BF160E03
BEE4FCBC
BF001C5F
3EAFAF4A
3EEC5152
3F0E5827
3EADC060
BF4953E2
3F3822DA
BEF2DD14
BDADC576
BDEDE7C5
3C9A5E5F
BECE04A1
3E1864F3
3E99FFD7
BBB3FDFC
BF18493C
3E8C0E8D
3EADB3EE
3DF37F9D
3DF98E67
BE2DFA81
BEC0DE3D
BDDA92DF
BE0DF701
BE59109B
BD55772C
BDB7031F
3E356464
3DD07694
BE8437B6
BEBD694C
BEA3B3D7
3BE807A7
BC1AFED2
BE2BAE89
BE143535
BE87CD06
3EB27D53
3E91FF14
3DE0B420
3E73C0BE
3E5BC8F4
BDF3B836
BD9ECE43
3CCAE6E9
3E38C8EC
BE85ECA3
3E392F6C
3E9E5F1A
3E1D919E
3F02F850
3E83638A
3E41BD1F
BE80B37A
3E81261F
3E9FFAA2
3F105F39
3E7C5D35
3EE7D679
3F032440
3DDC865D
3DB1E3F4
BD2F3268
BD01E84C
BD3BC448
3EBD9E0C

