BEEC6C56
BED1622A
BEA4FD51
BD59AC61
BEB2628B
BF1EDA01
BD91309B
3F11D37A
3EF8FDD1
3E9806D2
BF0642DA
BF225017
BE8A7EE7
BE9D52A7
BE5734EF
BDF0B861
3BBA31A6
3E55865E
3EABE3FA
3ECCE1E6
BF0E2CE5
BF07F691
BDFD943F
3DC34534
3E477CAE
3EBF374B
3E8E3316
3E7A839F
3ED5FF78
3F003D34
BF827459
BEECFA50
BB9C00D3
3B98815D
BD4A7FA8
BE2A3507
3E481026
3E920C7E
3E57451D
3F11F30B
BF36C981
BDFF4E50
3EC3BB73
3E1A0EE3
3E8C19FB
3D3180F9
3D04F8B0
3DC69C68
BE10BE08
3D67F563
BEDF34CA
3E46EEC2
3E7F06DB
3E2B1034
3ECB6E9C
BC0E90D5
3E2F58D1
BEBF5D0F
BEA7967C
BECB6EEE
3EAF7889
BE3C0682
3D4CFC8A
3EE416AF
BEBA8B8A
3E4E450F
3E912E8E
BE603FCC
BE570C1F
BF02B5D4
3E9DBCB4
BDF11A64
3E358B1C
BDC87B19
BE867515
3D7C3882
3D708D1D
3E10549C
3D5A4BE0
BF1B5B9A
3ED7B3A8
BE8C9581
BDBB7EE2
3EA5F926
3E924E23
3E29B7C6
3E37990E
3E0DB73B
3F219DD0
BED524BA
BD21E10D
3EA9837B
3D15194A
3EAF59F8
3EB5DF1C
3E560339
BBF3F0FC
3E84E6E2
3EC798F1
3D20F61E

