3A2A2200
3E3F2E40
BE52A90B
BDC43181
3E460B76
BD3E60B8
BE2E30A6
BE3AC538
3DA031B8
3E4157E2
BDD42DBC
BE1D109A
3C976D00
BE3B8350
BE446313
3E2EB778
BDAADD24
3E077486
BD854CD4
BE3F2149
BE337C42
3E1514DC
BE0FE9DF
BE1D9BD3
BE3FCD2A
BD21961C
BE3FFF59
3E3CB45A
BE58631E
BE365040
3E1FD204
3C9D7460
3E515D4E
BD806B3C
3E0D925A
3E44B0A4
BC62ABE0
3DFBE420
BD21FA78
3E19D502
3DB6D1A4
3E33E298
BDC271C2
BDF7ABAE
3D65DE60
3CF85338
3E2FA4F0
3E275C6A
3E137060
BE27F737
BE0AA66A
3E4397C2
3D952654
3D5F6AF0
3D933318
3E482B68
BE393C58
BD483C1C
BE1C377C
BD48C1E8
BD90200A
BE3DA1F7
BE450212
BCBD09C8
BE111E4A
BE132D04
BDB781B6
BE4C12CC
3D84B354
3BC80F20
BD54B0C0
3E23B410
BE53D275
3DDF616C
3D899298
3E00C13C
BE3DB82A
3D9FD57C
BE42205E
BDFAD93B
3D4B8058
3E11691C
BDC5CF32
BE113898
BE4AFF98
BE1D87DD
BD30A918
BDADC218
3D498B18
BDDD8ED4
BCEDB650
3E0F9F00
BDCBC239
BD524004
3E2A476E
BDCC0CCA
3E150E82
3D5C2A88
BDE4684C
BD5FB5E0

