BE451637
BE104C62
3CECF798
BE098738
BE2BAE36
3DBE7A18
3DB86A0C
BDBCEADA
3DB6A668
3E043548
BD88F468
3DF9AC58
3DB33628
3E59DBD8
BE1AB446
BD625F18
BE4983FA
BDAAE19E
3E29EE1A
3E1673E2
3C069090
3DB68550
3CDECE20
BE5503D4
3D304F68
BDE25788
BDF9BEB6
399BF400
3CFB2800
BD66409C
BE182F2A
3E58F0B2
BE02ADFA
3D7998D8
BE004DDD
3E12E1A0
BE42E5C4
3B98C7A0
3AC86200
BDFF2218
BDB122F0
BDEA0375
BE528082
3C2E8FF0
3BF72B00
3CF6EC18
3D3B8718
3CC0BBF8
BDDBD579
BE31C2EC
3D003A30
BDFD9D3E
BE0D51DC
3DEF2450
BDFCDAF6
BE4D26B1
BE2DE39E
3E0B9104
BDC556D8
3D78C540
3D552610
BE27093A
3C41B190
BDA049C8
3CEB0B88
3C6E06B0
3E4F5D32
BE58A439
BDA17C72
BE08A448
BCDBCCB0
BD6426EC
BD146FAC
BD2D2800
3C84A258
3B47F740
BD5FAE30
3E2753EE
3D649540
3DF8589C
3E0D3000
BE04972A
BDA5F860
BD595AAC
BE229246
BAAB3C00
BD9C3232
BC6CCF30
BE4B0CF2
3CA3E0E8
BDA42C94
BE392DBA
BE15764B
BD9994A4
3DED5DF8
3CD057C8
3E53F4DA
BDAB362E
BE5767BA
BE42C68F

