3E3A7B19
3C86BFBC
3E00C082
BBA21D67
BE287CE1
3DC48EDB
3D9F43D6
3D5125A7
3DE06EBA
BD973B2F
3E87F8EC
BDA0E1CA
BB6E8511
3D81D00E
BC04F6A0
BD14E1B8
3E2670A1
BDAB6FD3
3DB5D9A1
BE4FE75E
3E1178F0
3E015CAC
3E05D026
BE6494BC
3DABAEBB
3D22DC33
BE8F7682
BE2BDD91
BDC0B420
3E17ADE5
3E8534CF
3E4A570D
3E33F2C2
BDD6D364
BDE9D74D
3E0DB348
BCBE8817
3DB11160
BC8A2E99
BDF205F3
BDF90F58
3D8D5CC5
BD62258F
3E34F47B
3E332255
3DA7EDF3
BDC2A579
3C300D8B
BCDC82DB
3E420F2F
3CB02032
3E2DF204
3E475356
3D247FAA
3E5F152B
BCDF6EED
BDD6859E
3B1F9420
BC514324
BDF880A5
BC8AC047
BD54AE52
3DEB3E8C
3CBE88E9
BDB8D35C
3E8A5513
3E52239B
3E241CF6
3D8590A0
BE132242
3E23F548
3E7737F6
3E2D4882
3E21431E
BD9E65FB
3E4EAD5E
3E802435
3C9FF61A
3DADE6AA
BE1E9D2E
3DA7895A
3E38F445
BE071901
3DE5FC66
3E752073
BE176B41
3D5E3707
BC838EF4
BD536749
BE25390D
BD76AB0A
3D01075D
3E02E6BD
3E788B81
3E1B3B5B
3E5C54AB
BD23892F
BC621072
3E7A04CB
BD684F12

