3D106D6C
3D839EDC
BE3EBBB5
BC04FA30
BE2E3C96
3DF1DDC0
BDBEC3D6
3E48326E
BDF5755E
3E0FBFCA
3E1FD8FC
3DF84E54
BB7FCB40
BD4FBDE8
3B1B36C0
3CEA7500
BDA73204
3DA7CE0C
BD885732
BAE31C80
3E08AFB0
3D9EF930
BE2E32A6
3E55353C
BE242C08
BE388A26
BD832A34
BDAA3F28
3E362A3C
BDEAE2F2
BE09ED39
3E4504A4
BE404B35
BDEB2288
BD697904
BE57B400
3E23557C
3E575CEE
BDC9600A
BE1F6D5C
3C4AC9F0
BE194484
BE0A427A
BE0317AC
3E30D682
BE4F0BD1
BD23B94C
3CB87860
BE4EF683
BDF80E6C
3DB4784C
BC924B40
BDF64D80
3DDB7D6C
BE106587
BC0F7110
BE175C0F
BB8433E0
BD1B7AEC
3D998780
3B1E32C0
3D3FEFA0
3E1DE5D2
BB483B80
3E08AACC
BD472AD8
3DB94094
BDCCDD1D
BD773B74
BE13D59B
BE0A2682
BDAD5BF2
3E08D8B8
BE59A3D6
BDFDB3A1
BCF12980
BC6BE7E0
3DABA18C
BCECDB08
BCEF86A8
BE2B2688
3CA399B0
BDFAA0E4
3DDAC3E8
3CF15EE8
BE569BBF
3E58E528
3E35A47E
BE485AFD
BE3D80C5
BDDFB3A2
3E1875C0
3D84C35C
3D695F78
3D4F80F8
BE29B3F3
3E585A0A
BDF231D5
3E24BA16
3E1AE588

