BE4B65AC
39AC3033
BE326E4D
3E090AF0
3C886684
3DCB9F4A
BE4C5514
3E27AC18
BE675D4A
3E169A9F
BE7248A4
BE081361
3CFFA973
3CC0BB2A
3E3F80D6
3D934250
3D101654
3E006F69
3AA4389B
3D69E037
BC4A5CD5
3E40AF38
BE54FA3E
3E21FE8E
BDE5A238
3E14A08F
3E0AF899
3D4D2DDE
3CC066B1
BE1BD0DE
BE394192
3E1707C0
3C8DB69B
3DF0EDD6
3D8081C3
3DCFC537
BE6227EB
3E2C38CA
3E3FC16D
BD8B9FBF
BE3DF414
BE7021D3
BE04814B
BD472D2A
3DB7B2BF
3D98672E
BD0A8C19
BDB368FE
3AB6F1DF
BD0F04EE
BE0CCF75
3BB9DC55
BDFFD7EC
BE72B8C8
3D7E3D59
BE398936
3E213AAE
BDFB1AF4
BDCF44C9
BC7D02CC
3A0EFF4A
BD00FB15
BDBAE80F
3E23CDD3
BE40F85E
3D2C6132
BE597CB7
BA04D7DC
BDC75BC9
3E2D10DC
BE01F86C
BC79783E
BE02D9B5
3E0DD133
BCC42AE0
BDCF8090
3DA166A5
3CC3FFA9
3E234BDB
BE414274
3E3FE62B
BC88185B
BE350590
3D9143CB
3E058015
3DFC1E2A
3D566080
BE25875F
3AC3B5AC
BD33623F
3C88BC36
BD0BF931
BD6ABB2C
3DE80367
3D133D33
BE5F2F47
BE103EA7
BD083B82
3CE9523C
BE3FF92E

