BDB66997
BDAA7EB6
3EA91ECA
3C6C5DC1
3E96434B
3E6E07E1
BD132BF1
3E956B9B
3EB7FF0A
3D2231CE
3E577C0A
3E3C931F
3DB6B01F
3CB1181F
3CDF47C3
BD77759C
3E955BB7
3DD98A9C
3DFE5769
3CE5BDC2
3DE1C631
BDD2AF9E
3E8E5353
BD3EDC70
3CEC7444
3E7F2A71
3C43669A
3D95E9CF
3D6EA885
BA5EC325
3E562330
3DE4845C
3DB7FCE2
3E887CEE
BCC11DF6
3C87E1E5
3E96E510
BE18CCE6
3D548C5D
3DEA3C3F
3E209C3C
3D993407
3D90E47B
3E68E524
3E42FEFF
3E7C828B
3DF1F857
3E40AF81
3E02AF27
BD46C8F5
BE4EC8FE
3D3130B3
BDDAD684
3BADE3F8
3E03A13A
3DFCE0B6
BD5DE2EF
BE23ACE6
3D9BDD01
3E237095
3AFCDBE8
BE50C188
BE3A58B1
BE0BE995
3CB6EB73
3E91AFF0
3E129F55
3D79B3F6
3E0DD364
3E8A6683
BE0FE109
3D6C5295
BD13ADB0
BE8E15E0
3AFE2A78
BC174DC5
3D202CD1
BE753097
3CB3ED43
BCFD2710
3E0AC6DA
3D045BB2
3DC4FF7A
BE902E64
BE6E90B2
BE299A1C
BE86EC76
BDE6993E
BC75B52A
3D8A2484
3C986B96
3E196DAE
BE4E2278
BE1A7D47
BEA4A7E9
BE8F86AC
BE246D2C
BE9C57F2
3DD67254
BDCB98AF

