3E47A928
BE538E2E
BCCBE568
3E2BB952
BD0CF1D4
BE0A60C8
3DE12590
3D9A1CE0
BDC681A5
3D029794
BDF4266E
BE468F84
BC6B9C30
3D2A1DE0
3E3CFBB2
BE3AC901
3DF169F0
3D959B08
BDC6EE6E
BDC919A1
BD8EA1CC
3E2C9D2A
3CD53550
BE031F90
BE51D3B5
BD601674
BCE85E68
BD70B2E8
BD3F0638
BD134E5C
BDC6420E
BE172824
3D8C2E94
BE474941
3D995F58
BE1D85FC
BE204C35
3D33CDE0
BE53BEB6
BE3ACA3B
BE115A30
BBD32FE0
3CF1B858
BE1A212E
3E369FB4
3E330758
BD89AA7A
3CA1F558
BD945520
BE550884
3E00A4A2
3E334264
BDB7E857
BCFD4D70
BBCFCEC0
3D556C88
BD52EBCC
3E507B60
BD77B9D4
3E2EA0A8
BDF57121
3E47255A
BD259ECC
B9817000
BE0AA423
BD095B40
BCD0A768
BBABA140
BE2F1AEB
BD614540
3DB525EC
3DBBC7B4
BE0354F0
3E3BCCB6
BDE99A89
3CA9E468
3DEA8484
3D9337E4
3E14D886
BD353AE0
3D7D9840
3DEF95B0
BE2DAD77
3D83FAC4
3D352AA8
BE4AE6FC
BDAD7D64
3DF2FC98
3DA36234
BE3F06DC
BE56B377
3DD6E8F4
BE361D41
BE126B2A
3CA60520
3BFEC6C0
3D5F4048
3DF00F0C
3D1DDAE0
3DB18754

