3DB60895
3E1C717B
BDAB55BD
3E5FE433
3E61E331
3E89E71B
3E4A7D81
BDAAAA3B
BE136160
BD59FF25
BDD4B88C
BE2326F5
3D046D75
3CC90BAA
3E4A17CA
3E43B13A
3D1C7927
BE08DE0F
3E057D90
3E9B0671
3DDD8E09
3DB9AB9E
BDD5161B
BDBA0813
3D19D52B
3E91457F
3D725CE1
3E142550
BDFC46C1
3B7C6DD0
BD826DAB
3D303661
3D1F185F
3E55CDD0
3BEFA92E
3DF822F7
3E586E89
3D4D34C4
3E14B4A5
3D832966
3CC9F3FD
BE928841
3E0A60DB
3DD6F820
3A859356
3E5D8186
BD7F6126
3D0EEB08
BE469F71
BE5EBA42
BDF3EDC4
BE390D5F
3D842562
3DFC18FD
3DD9F26F
3E174D8C
3E659BE8
BE5B2EE5
BDF8997C
3DA58BF9
3BA5934B
3DA74CC7
3DB59016
3C227326
3DE560CC
BE0CB1C0
BD975D85
3D88710B
3E022AFF
3E21D255
BB653FFB
3DB95848
3D80C25E
BD82CFFB
BC92C58F
3DE2442E
3D66DCF0
BE0BAB43
3CFE9886
3C509262
3D73B0A9
3D090BCE
3E011D2C
BE35725C
BD43C33A
BD8816F2
BCCC78AE
BDDE3CF5
BDFF566A
BE76DA05
BBE60FA9
BE12B9B7
3CBCFB17
3DE0E742
3CDE4101
BDF2CDF9
BDD83604
BD413626
BD9A2D56
3C05B178

