3A6EF401
BDEABCFE
3E829967
3DBAD10E
BDA9D812
BCD5D75C
3E6C6331
3E399203
3E42D310
3E9DC581
3DBF8DB5
3E351E20
3E5F2790
3E179309
3CECCBF0
3DEDE661
3D19F47F
3E43F073
BDE6EA05
BB2637CA
BDE8925E
BD62C95D
3C2F5B9A
3E8CA6E7
BD0EF25A
BC423B03
BD20B541
3E47CE48
3E5EBD8F
3E7E459D
3D409E60
BE4313EE
BDA7A00A
3E45DB09
3E9C4159
BBCDD4C0
3D56ED9F
3E0FA523
BD597255
3E8CEEB0
BC070AC8
3DA7FB99
BD793966
3E8806AD
3E3FE680
3E7F16BF
BC61B431
3E4C0BB5
BD863D95
3E4E0CFF
BE1DB24F
3DD5141D
3DBCFC66
BD412B5F
3EA75C8A
3EB03246
3DEEED4C
3CDA8950
BDCA0988
3E32153E
BE4A80AC
3E17EE99
BDEC85FC
3E4B6695
3E8FD8DD
3E03F1F2
BE177F6A
3DA83E16
3CF6723D
BE08355C
3D486240
BE239C9A
BDF9E09A
3CC5ECD8
BE235C75
BE4E8C8D
BDC78502
BE3349CD
3DDDCD97
3DC1AD6C
BCDEB97D
BD7032E6
3D9A3BA3
BE17A5CC
3D1CB917
BE0E34AC
3D41458C
BE1DC285
BDD463E5
BD5CAA0C
3E384078
BE4AC24B
BD8E8F0B
BC97E2D5
BDCF69E5
BE63F992
BE2F9088
BCE25DE7
BDA67A58
3E719498

