BE05F0E3
3E4338A7
3CCD83F1
3E24D486
3E4F8646
BDD3CF0F
BE1C7BAB
3DC2D171
BE645248
3DA31F43
3D4D1EEA
3E16D470
3E66D83D
3E3EB419
3DB429F4
3E345C01
3CDFC57E
3D93E2FC
BD4A5148
BDCFAF16
3CF98396
3E329BB4
BD4CB004
BCACD433
BD6D8FF6
3D3BBE43
3E0AB061
3DCF284A
3E0E3DBA
3D828197
BBA87C38
3DE04932
3E7E32DE
BDDE871C
BE163F3F
3C444B9D
BD6DBBE2
BE1742E5
BE480947
3DC94204
3E396ACF
3CFF6C43
3D93DE3B
BD83CA7D
3D1B36DE
BE347B66
3D93A5F9
3D0B6081
BE34DF9A
BE4C5A5F
3DC27E17
3E7DC667
BD6D0A73
BD3B0EAC
BEB9C23A
BB9EC98D
BE22A6F6
BE03777C
3E5589E3
3DB5BA36
3C061A8D
3DAB1CB4
3E0059BC
BE201D5D
BEA01F72
BEB4EA58
3E017B2C
BD0041F9
BD45DE2A
3D870EDA
3E47E9E5
3E0C5022
3DD42579
BCA7CC30
BD9F61CF
3D855488
3D817654
BCA1FA11
BD93DE44
3DDAF255
3E29656F
BE087287
3D2B1C17
3DFB995D
3DC38401
BD2950D7
3D983C36
3E39869D
BDA5A707
3D48B9BD
3E25ED85
3E13CAD7
BD42955C
3D8BB1A0
3DA78F31
3E69B2F3
3D5F0926
3CB73473
3CCE871B
3C98D009

