3D9D4304
3E624655
BC59A0CC
BDD48AF1
3E807CB4
3D116606
BD095249
BCF19329
BDF2BEF7
3E77D437
3E23A323
BDAAAF66
BD5E52F9
3CD1CDBB
3D28F4DC
3E0E707B
BDB570A5
3E550A36
3D49FFDB
3E727A3D
3E6D34F1
3CFF949A
BB80DA52
3E1DBE77
3E0BC8C2
3E61C329
3E6A4FDD
BBC1C247
3E57858B
3D0C1419
3E370746
3CBCCC88
3B052DC1
BDD71CF4
BCFD64D4
BD38443E
3E809F77
BB967D1C
BCB8BD3A
3E17BBD7
BE022CAB
BB0D128A
BDBD57FA
3E2F53E9
BD4BD20E
BCD20804
3D5008B5
3D491EFE
3E867215
BD82CFB6
BA819225
BDE124F5
3E33D11F
BE0D24D6
3E0AB4D3
BD9DA354
BB708030
BDADF068
3E87DEE7
BE1A5C65
3D410BA8
BDB061C0
BD99FF06
BE159F7A
BE00F752
3E2919CA
BDA91478
3C1CC128
BE0D898C
3E04C4EB
BCF79B73
3DB404F6
3D8312AF
3E3B1F3D
BDC2E15F
3E0ED497
3E03CA14
3C6A87EA
BBAA58EA
BD074EA9
3E41636D
BA87FBE3
3E8F60A5
3DA54985
3E898D80
3E8D640C
3E868B35
3E6B74F6
3C175E3B
BDF4B52A
3E466DF0
BE091F9C
3C423312
3D583587
3E47D2E6
3E9385DE
3E880833
BDC39592
3E500749
3E4E820B

