3E4D1E0B
3E1319D6
3E0F37A5
3E2E68F2
BD758FAB
3E42224D
3CC285CC
3D91FF04
3DBD317A
3DC2963C
BDF0B2CC
3E633F08
BD61F6E4
3E2D1576
3E0BCEB0
3DAA4021
BE1E476A
3E81232F
3DF82E26
BE03B50A
BDDE0F07
3E055DE2
BCBAF0B8
3E7DB8B3
BB62B0E9
3DA60391
3DFCF088
3E55498F
3D74AE89
3E1637BF
3E16B437
BD567F34
3E8763F9
3E875CAB
BCBE3574
BDC9C05C
BCA4F48F
BE29434B
3E5614AD
BDFD33BD
3DC9B1CE
BE100A5E
3E81E4C1
3D2A1230
BC7CBC86
BD53D7E5
3E6CF331
3DC0F4E8
3E54096B
BD27D1D4
3E4928CB
BD8B5493
BE010175
BD8B38FE
3E651AA4
3E55BB22
3D7B0814
3D1AC177
3E49B9D1
3DD477AE
3DAC5502
3DF8F994
3D4C5B48
3D85B489
3E69769E
BE178987
3E2930F1
BE0BBC2B
BD82D37D
3D9F3D0B
3E057748
3DE1900D
3E58B343
3E5DA23F
BE0A259D
3E1378E8
BCDA6A98
3DFB8185
BE0331F0
3E1F7180
BD9E8B4C
BDEEF1BE
BDB6CB16
BE5785C2
BD845212
3DED6B1F
BE51EA23
BE29BB78
37E271DC
3E6E52A0
3E032CC2
3E374799
3DC9BD38
3DB86551
BD20FFFE
BD20F6EE
BE3BE8C6
BDFECEEE
3D8C409D
3DD4EE02

