3D83E018
3E26DA3C
3E525D58
BD970E3E
3DF057EC
BDCF96F8
BDD96214
3E0472F6
3E0DAB92
3D704598
BE332FAE
BE0F74A6
BDF9D238
BBA68960
BE0E981C
BD781244
BB2B8E80
3E56BF82
BDB266E0
BE53510B
BDDB471C
BC9C3F20
3BB6E640
BD625C1C
BE34D8A8
3D37C678
3D4AE568
BE240253
3E432F18
BE1A6CB0
3DE665CC
BDCEFF63
3DAE809C
3E5A3AE8
3D1AAAE8
BDF36005
3E1AFF8C
BE0F77EE
3DA230DC
BC868728
BC646720
BDB95FCA
BDEEF882
B9AA6E00
3E3A3AAE
3E413052
BDB21BFC
BDD96096
3DFE0DDC
BE33A69E
BDD95ADB
BE281443
BD756584
BE3A5979
BDA2B99C
BDA74CB8
BB4BED40
BE44F096
BCD1BAF8
3D8FF2BC
BD0418D4
BC70FA40
BE51D8CC
3E30D404
BE0BE3BD
3D385DC8
BD94A092
BCBE3D20
BDC35E1E
3D6EF6C0
BE04AFA2
3E41D6A4
3CBA1F28
BD6B572C
3E22A846
BD521A54
BD6AE808
3E4CB556
3DCD5E64
3D6D61B8
BDD9DD6A
3DD9FBD4
B9F9C400
3D63D890
3D75C180
BE58B052
3D2FDC70
3E0047AE
3DFD93BC
BC71FBA0
3DE26BF8
BCD48B28
BE1BBD52
BE22E1D3
BE2462A3
3D1EB8A8
3E268F02
BE541E06
BE1584F0
3E51BEB2

