BD1BD68C
BE2B8EE2
BE465FFC
3C9A7060
BCF18900
BDA262D0
BE156352
3DA9AE34
3BE29CC0
BC366D00
BDA38F3C
3CFB1E50
BD1992B0
3DC51BB0
3D1F1800
3DC0FD98
3E10B894
BE50271C
3DBB3630
3E23E67C
3E188A68
3C1260D0
BDFA756D
3E05FCB8
3E435A0E
3E101B10
BD4F5D7C
BE1E7AF0
3E4BEDD8
3E4E1CCE
BDB44138
3DC71A28
BE4B52C9
3DA0D7B8
BD8DAD62
3DEF11B8
BE42BC9B
3E026148
BDF50887
BE3516D8
BE2FC3DE
BDD35667
BE076064
BE3A640A
3CD4F980
3D824348
BE488660
3DF85E0C
BDCB93EE
3CBD6BF8
BE21606C
3D8C0FB8
BC92A058
BE56641A
3D758A08
BE4CB06F
BE5191C0
3DAD5CEC
3E593244
BD36C540
3DF3B4EC
BB1FB940
3C139330
3E01984C
BE4DAD98
BCE87C78
BDAC0798
3E05094C
BD7F3088
BC2430F0
BB503E80
BD31A7E0
BE060868
3E1D9A96
BE06964E
3DCC4144
BDFE4B15
3CD1FEC8
BDB7B318
3DEAE6C0
BCD80328
BDD762E7
BC06FF30
BE3F858E
3C08D3A0
3D8369B8
BD455BD4
BD4A0018
BE216B1C
3D5D5710
3DB8CD6C
3DEC5274
3DF4809C
3E001472
3D5B1EA8
BE106883
BE17CE82
3CA42128
3D9B8038
BDC10824

