3DC0A418
3E05F308
3CB3813F
BDC0B323
BD77DCC2
3CA5E0BB
BDF01751
3D4F94E0
BE8DBE0F
BEB253E8
BC529FC3
3CE21456
3DAA9D19
BDD2DBF4
3C0718F3
BDBEBB81
3DEF6F99
3D3D846B
3D449E78
3D326BD6
BDCC88CE
3D9F2F30
BDA3EDB4
BDEF5DCC
3E5F868C
3E16D5B9
BE09DA5A
3D0FB88A
3DBCE234
3D8B9D56
BCBF6A08
3D1BABF3
3E457D82
BE70B504
BD5A4076
BE76D949
3E091050
BDC33B41
3E4C80CE
3D96FE34
3E41F965
BD76FC26
3DD36489
BD2B2EC5
BEA57F04
BE855C6B
BE5F733D
3DA5F745
3E4281FF
BDE89847
BDF8C08C
3BD753E6
BD32DB79
BE3CE880
BE0EAB1E
BE66CABC
3B8D3DD7
3E4499A4
BD804928
BE1A66CA
3E71EDA5
3DA90D76
3E944963
3E78A257
BE23A089
BD274030
3DD41F38
3CE181DF
3DBBD405
BE2E08E9
3E158DE3
BDEFCE9B
3EA503CA
3E67253C
BDC97B63
3DEB8188
3E7D11FC
BD273AAF
3D18696C
BDCD8531
3E5B196A
3E1E2BF6
3E1B44B7
3EA4969C
3DAE2919
BC9AE156
BD46F12E
3D88CEE5
3E1ED35D
BDF33E65
3DF42FB8
3E8707C1
3E342BB1
3D8BBF9B
3D0FCC9B
3E4C5272
3C4F8817
3CA5AC3F
3E7BAB32
3E28D116

