3DBECA5B
3C181E4E
3C4E5ADB
3E018991
BCE57104
3DA43D94
3E23D600
3E869E8F
3D2A9EB9
3E3BE8AF
3D609CFE
BDF82691
3E6EDC5C
BD62BA45
BE932A62
3DEB620A
3E214BA8
BC03F82D
BDA7D6A9
3E76F27B
3E5AFEEF
3D18F7AA
3E263475
BD696C70
BE57C9AA
3DFB8F90
3DD4BBDB
3DE26061
3E6369D7
3E896957
3E449CA9
BCEB81DF
3E39E242
3D61F8A8
3E6321E0
BDCB13C0
BD560334
3D5EA38C
3E470281
BBB57291
3D1F511A
BD10D630
3E25E606
BDF123C3
3E598922
BD5AD1B6
3E3F245F
3DBED92C
3D4333B1
BDE7FE29
3E0C44F4
3E6F640F
3E0D5E09
3D023326
3E8A81AC
3E22384E
3E7555B1
3E6034AD
3CFF701A
3E865981
BDEC4753
BDB687FC
BE02F512
3E218AF9
BCFE7D6B
BD6FEB3D
3E6661CF
BDB78E7E
3E7EF8C5
3E027AF3
3E1C4796
3E30EC29
BDC8A029
BE09E9BC
BD1B85F2
BD2589C8
BDF21FFA
3D21A09C
3E7CAD6F
3CE2F4F0
3E5026CB
BDC2777F
3DEFA897
3E4BE317
3DD90C6A
BD2AD9E3
3E562419
3D604E38
BC98A0F9
BD948982
BCF0F02C
BD06ED39
BDA96172
BE38ECD7
3D989959
BD99E1AA
3E3647C7
3E78DBE3
BDC86815
3E1AFA4E

