3E365CB3
3D6F4567
BC6C102E
3E358ABD
BD992A37
3E485556
3E387A61
BE136AA4
BD5C264B
3E277E78
BDE22335
3E679A14
BCF28DFD
3E863DDB
BDBA015A
BDCA5FA6
3CC855E2
3E5337F3
3E4A33A9
BDF2F0D6
3DF8EC49
3E54AC91
BCB28CEB
3E3C3AF5
3DEC6BCF
3DFEE077
3E3E5E29
3E29D1A6
BD37FD64
BC2A937C
3E15C583
BCC6CAF4
BE00D92B
3E1583BF
BE1CB76B
3DC33552
3E9CA607
BD8032B0
3E197B81
3B86DE43
3E5041C5
3E2EE5E3
BE31C25E
BE175682
BD53925A
3DE01CC2
3E15FE4D
3E1695E4
3E6A3ED7
BD772A51
3CE27C01
BDFA539A
BC8ACBB4
3E03A54F
BE806167
3D995D13
3D3476F9
3D838FEE
3DB0E9B0
3DB0C9BC
BD04B6B8
3E83276C
BD0C4B44
BD861F15
BE30BB1C
BE637E9F
3E9FA437
BD944B4F
3E8075D0
3E865A44
BD790907
BCFF4EEC
BD9610A5
3E7CAF38
BD833FD6
3E29C0BC
BC017335
3DCD8DA1
BC98C22D
3E1D15DD
3E2EA698
3D5829D2
3C778BCF
3E1415A2
BCCFA53D
3E9408E6
3DD3B53C
BDA29AED
3C27AF08
3D214759
BCD6359D
3E3057F9
BC811334
3E861959
3DFB7B43
3E39749F
3E3015BE
BC7DAD79
3E806454
3E9FB00F

