3CDB3889
BDC2339A
3CB4C890
BBAFEDB1
BC4E3B62
3E2D55B3
BDB246A6
BD9E4071
3DA0188B
3E42B1AB
3E6A13B6
3E708AD5
3D69F87E
3E61BD23
BD1351C3
3E1DB648
3E4BEE7F
BCC6A797
3E597A58
BCEDCB68
3C356DDC
3DB8AD1C
3DE5D00E
BE2463B4
BE21339E
BE203DFB
3D342683
3DA53740
3B9997E4
BE27BD86
3E46FB8E
3C6C3DF4
3E3F68D4
3E07D7DC
3DB1554A
BD775080
BDBBC17A
3D1CFE94
3DEFC004
BE1622E7
3E1705AB
3E6A71B1
3E38F98F
3DDFF201
BD481720
3D2F9A0D
BDBEA005
3D2F9092
3A0597D2
BC114E52
BD8B8A6B
3D9838A3
BC2DED72
3E2CAEAD
3E278549
BDDDEE7E
BE06A968
3E2DE3D2
3DE5C362
3D4D3013
BD69D70A
3E52AD30
3E7EBCFA
3E74BD08
3E706EC9
3E513C0E
3E8256D0
BCA7BD0B
3DE75FCA
3E879AD7
BC8E9680
BD91930F
BDC8F433
3E45B476
3D4ECE54
3E397740
BDEBAE75
3E202955
BCAFBD75
3E824B94
BD2C4DD6
BE0AFA75
BD69E12B
3E54FF25
3DF5E9E1
3E2DC7F2
3C848ABC
3E483562
3D17C644
BD832A00
3D28E59C
3E23A531
BE0C5CE2
3DE00074
3BFB2379
3C3D0D01
3E928395
3E8178E7
3E6ABED4
3D322663

