BE45EE03
BE48B784
BDA12AA3
3E01B660
BE0C86D2
3C23A4CA
3E3B46C8
BCC3082E
BE458061
BE0C6FB6
BB851195
BE0134AB
BDCC5827
BDD7678D
BC3DD812
BC23EA9B
BDC633D6
3E2E0B88
3E2C46B8
3DA62414
BCCDC80E
BC478ECC
BE3417CC
BE09A259
3DD3C004
BDF42AE1
3D858F8B
3DC93A93
BE103A35
3D117067
BE004608
3C987BE9
BE4636FC
BC70DBB0
BB8879E1
BD8B5C20
BB83E88A
3E1C0B33
BE5A389F
BD732AD6
BDC670EC
3D753608
BE627319
BDB985BE
3D8B3ABA
3D453F8C
BC8412F7
BE083016
BC5482A0
BDBB47AE
BC463D21
B9C413C4
BB26D982
3E09616E
3E07BD8C
3C9D98B0
3E3430E1
3DC9210F
BDA0F312
3C1EBA50
BE2A95BB
BE01A569
BE3F7A72
BDB01E98
BE26E6EE
3DB47914
3D9B2D8A
BDA161B1
3E289877
BD1686B8
BDE2B065
3E065C4B
3E027D8C
3DBE6694
BC9EC91D
BD5C4AB0
3DB02EB3
BD38C618
BE63974B
3E209FB1
3B8F5D34
BE00DD9E
3E0A4A35
3E44FEB2
BCE1E9FD
3B803B71
3C0F97D9
3DA0BDC5
BE623585
3DA63A33
BE395075
3CABD42B
BE059513
3D15F02A
BE61667F
3E2EF30E
BE27F827
3D04B97E
3D6322C0
3E16F9F7

