3D5B48AC
3E38F920
3E03B859
3E7E2D42
3D168728
3E7DDADA
3E04F084
3D974BD5
3E8DE99D
3DAAE470
BDF5686C
3D3E4EA1
3E2771B9
BB3E2A77
3D348F62
3D425231
3D94659F
BDB45073
3E931542
3AA37AEC
3D632B76
BE0C4536
BE0A30F0
3DECDAA9
3E516554
3C463069
BE197C9A
3C545CB4
3E244DE6
3E3EE0CF
BD73D7F3
BC9F02C0
3DEBE2A8
3E481E7C
3C6FA8ED
3E12167C
3E3209BC
BDAD0E29
BD21C68D
3E3402D8
BDC1F30D
3C5E5A73
3BDC7267
BDC8BAD8
BD9D4E32
3E8BFE9B
BE02D650
BE3E035B
3E05075A
3E25F247
3E635783
3DFE6D76
3E15D9C0
BBD1B483
3D85EAA9
3E6BD5EF
3E6FEFD8
3DA55C68
3E0C44AB
BD083F80
BC0F7569
3E35E579
BE316BFC
3E1D025A
3DF97C91
BD6BE22F
3D74BC94
3E34BE94
3DA44EF2
3D9557C2
3E27B51E
3E1167AD
3E359132
3D67AD23
3E3CBA04
3D8ECE42
BE12DF44
3C5CEB16
BE134DEC
BC9606FC
BC8F24BB
3E07B86D
BD7CA310
3E1C2A79
BD8144F9
3D49EEE5
BCE2367F
3CCD5138
3D285D44
3E79360C
3E39A15F
BD1823F6
3E1B4B4A
BDE950DF
BE67B3A1
3D9A058B
3D2D7BDC
BE2DDCCE
3E6CDF6D
3E770F94

