BE4ADF9D
3DF26F04
BE49BF6F
3DF538EC
3E516160
3CCF2E60
3C428F20
BDC1E224
3E4AF796
BD21DA80
BDB408BE
BD264600
BDF4E752
BC8BAC18
BE2BB82A
BDDA7D8E
3D804A64
BE001404
3DF7B24C
3D69A958
3E16D99C
3E13AC60
BE317D16
3E2FE384
BE3F049C
3D8FD770
BD8B9418
3B939E40
3D07ECDC
BDEDC772
BCC64850
BE559091
BDE95494
BCEB0130
3DB6BAB0
3E23ACDC
3E3171E4
3E01B5A0
3D718D88
3E17E6A6
BDDC32AB
3DB50AAC
BD5B698C
BE02AF23
3C7153D0
BD5930FC
3CC2DEA0
BD821E52
3E18B14A
3E039F00
3C7E0080
3E0711A6
BE374049
BE3A0062
3D59AB00
3E1A1E5E
BE2A9D68
BDFFAB1A
BD323104
BE4D8820
3DD873E0
3CB8A6F8
3DA86024
3D478300
BE41D7F9
3C01FDE0
BDD3FFA1
BDD24ABA
3DB7C714
BE16C338
BDE7F5DD
BB854240
BD8123D6
3E1A0842
BE3690A3
3C047070
3E060120
BD1A61C4
BE462E30
BDB34544
BCE0CF30
3E50960E
3D4B2A68
3D5B2D08
3DF91570
BE11A735
3D537238
3E065D82
3E059E4C
BDCC3AC9
BE596F60
3D7DF978
BE0C9CAD
3DC013A0
BDBA39DE
BDF278F0
BD193EF4
BCC7F988
BDEAAC27
3BF28B40

