3E7D5DC6
3E69F2B7
BDB62680
3E0F9B2F
3E4291F0
BE293DFE
BD566E6B
3D52BE3C
3DB2AB9C
3E621C99
3D041F89
BD916DD6
BE15E04D
BD3C32C9
BE0848F2
BDF63BE0
BDD1CFAF
BD70E495
BDB07FDD
BD4F2890
3E89392A
3DB0BD74
3D3DA4C0
3C35085B
BDB1D15A
3E3F1050
3E3C9F07
3E33F9B7
3E654DD2
3E1E3201
3E3126D4
3E66C62C
3E211EDC
3D898893
BE18C765
3E68410F
BDB27F87
BD1C93A4
BDFD32A8
3E2EAB5D
3D8201C6
3E1C1046
3D4EE9E8
3C8DCD6A
BD9FA77D
3D8D5924
3E150F79
BD0F25E3
3E57E68B
3DB01928
3E53FAF6
3E169E3B
3DF288F1
3E6644DB
3C978806
BE4C131D
3CC79E41
3E17D9E0
3D0182A5
3E533E76
3DD46586
BDC69D2C
3D9ABA59
3E660133
BE40E591
3DDED9E6
3E476AA7
3DE770A1
3D8502EA
3E051812
BD4468CF
BDF1D9A5
BD7FD306
3E38A6F1
3CF386EC
BD2E6D61
3CD83C9A
3E264EFF
3D91DAF2
3E5037FF
BCFFE302
3DBD9B93
3C97300A
3E540A01
3C25DABA
3DD8DFD7
3DA40121
3CFA1CE2
BDC25930
BD5194C8
3CF30709
BDA500E8
3E288394
3D2B1DD4
3DD01D5B
3DE6A3D1
BBDB64B9
BDAD3A1A
3C3BA286
3D226658

