BBAB7846
BE636CBE
BD8D0EF2
3DDDE764
BDE06E96
3C984FBC
3E0E3108
BDB163E7
3E35D3C7
BE44B4AA
BE7786C4
3CE280EE
BD362771
3E2E20B6
3DD459A2
BE5316CD
3D5D5F1B
BE45C46A
BDA6AC95
3D925F30
3E28628F
BE512A5E
BE466535
BE10F1C6
BE35D9DE
BD65D65D
BE0C1838
3D7AD76E
3D69C394
BDA07182
BDA9DDE1
BE5AE1CD
BD433EFD
3DA92A46
3DDE167B
BE2787AD
3E5D283C
3C8D86B6
BD935B54
BD8A6018
BCBEC088
3DDC02A9
3E1BFF40
3D64C48D
BD4A9F21
BDE42BAD
3E44AA24
3E20C6DE
3CAFC6A2
BD7B9F0C
3E0D5223
3D83EE71
BE4C7606
3D88EABE
BE937E54
3DA3D20F
3D83B042
3E2DD8B9
BE090460
3E0D559F
BC32AA83
3E12B984
BE02C089
BE2A2876
3B9370C5
BDBDC325
BE132E58
BE428490
3E31FE9F
BCD66E3A
BD6EE7B6
3E3A13F0
BE5D54CF
3E3009F3
3D16A2E3
BDEFE630
3BFCA50F
3E4ED8BD
3E0525D1
3E127E75
3DE90E32
3E0D1430
3E1EE08C
BD5CE7A6
3DEFC2D4
B9C0225A
BDD69D21
3D8F3E11
3D71F73A
3DFE4C39
3E20EDA6
3DF8C82E
3D88F08E
BD1DB679
BDF5059C
3DA73694
3DEC7317
3DFA2AFF
BC44123E
BE4D8F59

