BE1EF2FE
3C042070
BE450269
BE8FEE2F
BD9AD8F3
BE82BB56
BE201FCD
BE5CB899
3CFA035F
BCD24D1F
BE651FB4
3CE69F2E
BDFE63D3
3C447B24
3E59AC26
3E7AE9E4
BD0A2873
BE0F1244
3D36415B
3BD21E2A
BE5C45D9
BE999A06
3CADFC02
BE8C225C
BE62EA2D
3E204C12
3E93B630
3E5D3C04
3E0A5626
3E0439EF
3C7BFA26
BD3DBF13
BE4348F6
BDACB157
BCA89B34
BE2FA7A1
BC26106C
3E547A6A
3B0E164D
3DCF4406
BE029EA1
BBC853A1
3C80CD5B
BCAF1ACE
BE97F3FF
3C247606
BDD00DAC
3E9DE65F
3E7AA78E
BE4810A4
BE85BE19
BBF8DE4F
BE812466
3D4E49E0
BE919DE2
BE53EB14
3B11CD79
3E773698
3E94F9C7
BD2DB4B0
3E17DF92
BE7246E7
3E01FE51
3D62F29D
3D357FEF
3CFCAEB1
3E8BDAB0
3DCB4CB9
BD755290
BD97FFFA
3DCCD376
BDCC44B3
BBB95BA3
BCF2A12F
3CA7EEC7
3CA1671C
3E84DAB9
BB380930
BE14128A
3DAFF9CB
BDC1705F
BC34E444
3E050093
BDC0EA6B
3E72C507
3E2B6DE7
3E17B449
BD34405C
3E4F8164
BA0B0A8F
3E1AFFAA
3E06EC03
BDB78DD8
3AC27B25
BE1AD11B
3E4C1B4F
3DD14317
3BE2F788
3E48BAC2
3E71FB69

