3E1206B7
BE5DDC47
3D7864EC
3CB83D1D
3D9C954E
BD64E736
BDA313A1
BD145371
BE59C35A
BD783C36
3D70F72A
BE1579DE
BE455E96
BE5BEAFF
BE1B9FFE
BDF851D3
BC508227
3D862E57
3E31BDE3
BE804B74
3E2CF597
3DFE600B
BE24F109
BE3B09CC
BE45262F
BE3B2098
BE8CE0B0
3D9575B2
BDA5C94F
3CC6AA45
BD7C2C40
BDDDB0D2
3D3B77D9
BEB393B8
BE36AEBB
3CA5D1E3
BBE2E79F
BDC48F61
3E8952FB
3C0B6A8C
3E35C8EA
3E8D6BE3
3DFF12C9
BDAFA132
BE7F135A
BDD56930
3C73FACD
3E0D6B69
3D733BBF
BDF998E8
3D87D21E
3E6F75EE
3E65755D
BE830E4E
3DAB86E1
3E2F85F3
3E0DAE27
3DB517F2
BD4F7E30
BDBB3858
3E0B7D50
3E49C3FD
3DF98EB9
3DAB720F
3E35BA4E
BD35E5BE
3D371B7A
3E123FC6
3D531F0B
BDE4C3BD
3E91971C
BCF7D860
BC9E4C69
3DB321A3
3E89EFFB
3C48AF46
BDDFE06A
3E82ADC3
3DD46D32
3E530060
3C2DE03D
BD2AA1E4
3E561507
3E7E5993
3E9B1555
3D13CBAC
3E4F25D2
3E0BDAAC
3E2F46C0
3E648775
3E158D79
BDD409BF
3D059399
BDDC2A11
3E30530C
3E9CBEFF
BCABD8C7
3E845A87
3E6B96BA
BD9009D6

