BE0A313C
3E171056
3C05C3FF
BCFBD790
BE111B1E
3E19604F
3E13BA94
BE0ED47C
3E3B188F
3DF0E32A
BDF5B005
3CF1D4E3
BE0724AC
BE502D4F
BDD2828A
3DFA03F9
3C43E1E2
BDCF92CD
BD6BE7F2
BE310AB9
3B92A70A
BD370759
BC2C161A
3E392344
BDBDDABB
BD73F961
BDA8A860
3E0F38EF
3D10FF87
3E09E793
BE62C771
3DBA5667
BDCB0EB5
3DDDF1E5
BD5B806B
BE1F2379
BE3527F0
3D5039E5
BCA1E758
3DE7059F
3D789211
BE268962
BE075E93
3D06D907
3E06AB35
3DE65B2A
BD666A7B
3E1C9B86
BE5886D0
3E18EEFE
BE0638A3
3E0491FC
BE0F2997
BD3D89E0
BE0905AE
BDF8DD82
BE59D27D
3E1AA953
BE42E3D9
BE55CCC8
BE39B2FB
3DEB1E43
3D8C464E
3D84584A
3D832795
3E0DFB22
BE05594A
BE0954CE
BD8113C0
3E06AAA4
BE2F1B24
BC3F6A00
3D876AD1
BD9BC444
3E1E7EAD
3C2E73B6
BE2C24F9
BCB47131
3D806BDE
3D984C9C
BDC90606
3DA812D5
3CABD20D
3E465664
3E379C0D
BE05D3E8
3D907BD2
3E4AAE2A
BDDED8E4
BDFD2956
BE19C430
BDE07E4C
3E20E889
3D64F048
3DA5BB0E
3E1E5418
BD404E59
BDF227B3
BCB65003
BE397379

