3E113AB3
3DDD5A56
3DF3D44A
3E3D54FF
3DB44332
BBB7E685
3DDA5FD4
BE4ABF62
3E13018C
BC5651ED
BD7B64D0
BD96656B
BE56A98C
BD0EDAD3
3E3CA52D
BE19288C
3DFC3723
BE19F820
3DF4D9B0
BE48A159
BDE2806B
BDA50315
BE52D6B9
BCA94BC5
BDD23B1A
3DCBABE1
3BE8F768
3C95072F
3E2F15AA
3DA5675A
3E16D5EB
3DB4CD45
3DAD5C3C
3E1040B8
BC11394D
3C2231B7
3D4A8962
BE567E23
3DF311E0
BDE2A8AF
BCE00892
BE2E020A
BDE234C2
3CCE5CEA
3C8A64C8
3E256644
3DBA96E4
3CDD3283
3D9CFD91
BE0DD482
3DEDACE2
BE003455
3DA45E68
BDE51CBB
BDD1377B
3E38A9E9
BE3FF1B5
BD8D90C9
BCE40708
3C5B109C
BD17DC81
3E045BF5
BD0BA78E
BDAD82CA
BE577574
3DAB9DFC
BC063038
BDD99E30
BC52D113
3DD98053
BC4C89DA
BE13D1C7
3DAEA815
BDE08D9B
BD844604
3DEB7771
BD6766D7
BE471E95
BE2AE1EC
BE529F17
3E06CA35
BE5F2252
BE0F115D
3E04E97B
BE07DFB2
BD91B877
BE04721B
3E1333E8
3D49EC68
BE42C4B7
3B5C37BC
3BAB5EC7
BE3DCDA5
3C8E5677
3E47291E
3E37FC84
BDA65AC2
3E249D99
BDE4F286
3E0A3182

