3DD687D0
3DCAE0F8
3DDB6474
3CA432C0
BE065C86
BD6550D0
BBDD3E00
BDEEB811
BD91AA1C
BE41374D
BD9BAF4A
BBF8A680
BE34D372
3DF477FC
3E08E3C0
3BED6400
3E458A44
3C30D370
BE2955EE
3DAFDD98
3E51B028
3C76AA00
BDBE0C08
BE1C9DBA
BDB2A492
BE007B84
BE4BEB8B
BE1E2FFC
BD8CF11A
BD4D190C
BD47568C
BE2B7FFF
3DCBB0D0
BCC5BA20
3E2048C6
3E2B12C2
BD825392
3D96AF58
BE2D9CCC
BDBA9F89
BE050461
3DE904BC
BE085D4C
3D2850A0
3C195BA0
BD84B560
BE3C8827
3DCB3900
BE021AAC
3E16D0A4
3E49ACC8
BE51CBB6
3E02CC32
3BE04540
BE3993F5
3DA7F010
3BE0A9E0
3E26CD5C
BE4E839C
BE15402E
3E3F5D94
BE17CBE2
3E214E7A
BE32FF50
3D97411C
3DC178B8
BD8285B2
BD6F06A0
3D86F19C
BE18DA0C
3E42532A
BE340A92
BE4B6577
BD7B6618
BE322BD8
3E336B2E
BDB87F87
BD35DAB8
BABFDC80
3E2FFD4C
3DB90AC0
BE2E3668
3D305458
3CB331A8
3D8B0E50
BDC0664C
BDC1A723
BE2EFE7B
BD8B7E58
BE41D342
BE0F7887
BD9B743C
BD8FB940
BE433976
BE4D3CDE
3D35FDC0
3E402E6C
BD438E74
BDF8AFC3
3DE07C54

