BE3D64B0
BE228E21
BDE946E8
3E0B5C58
3CD6292F
BDA85F32
BDBF55EF
3E287474
3D20164D
3E1CD485
3D8810F7
3E01E065
BE26578A
3DB44BB8
3D1DB0C3
3DAD7D19
3D8A5A73
3E0B406B
BD2FC449
BD8E1BBD
3D306658
BDBF4DF3
3E2AB915
BE4032A8
BD50DFFD
BDCA576C
BE08E5E9
BCF830FC
3D21510D
3E119BC6
BE2390C9
3D328E22
BE01881A
3E373427
BE65E2F6
3CA8A8F0
BE4C2653
BDFEEA0B
BD71DF67
BE5D9111
BE538402
3E3F979F
BDBBF9B7
3E320E4B
3D339759
3E1FFDDF
BDBE468E
3DCF68C8
BDB8DDFE
3E38586C
3E2F191A
3E30BA42
BE4DDA5D
3D3162A6
BD0A2E35
3D8E759A
BC13571E
3D5BEC1A
BE2BF9EF
3D101C16
BE5A91E4
BB0E04D1
3D1C3CDE
3D49EAA8
3A39CD95
BD931866
3DB0A622
BE473195
3E487E26
BE48997A
BD4C04D7
3D9CEA59
3CBEE1AE
BE1D3FDC
3DF5031D
BDAEA038
BE30DA79
3C8F603C
3C8EEA49
3A3CDB31
3D8E3CE6
BDEB2B80
BE26C526
BDCBD331
3D8AFD48
BDCA5A6F
BD417B04
3E33993F
BE53F525
BCF29483
3CE0DE2A
BA8939C8
BC2B1313
3E293A0A
3C8726AA
BB91FB83
3CA6C842
3CD0299E
3DE8A8F0
39FC9E64

