3CE6DE49
3D2A0F7D
BD1EA3E8
BD3E1C12
3E8D770E
3E5A95BB
BDA4D8A1
BC919127
BE297DB9
BD392151
BDA35D2E
3D299644
3DF22AD5
BD540A3C
3D73AF1C
3E8EDC70
3E925F7D
BD915972
3D888486
BD87472E
3D2DC78B
3E3FC10C
3DCE5B11
3DDC7198
BC804DDD
3DD3B08A
BDC19D97
3DF1B4FE
BDBA863B
3E301DE9
BE510280
BD02ED14
3D890E19
3D960325
3E4C0933
3D86E6FC
3E4F40B4
3E4800A6
3CE8E767
3DF83F09
BDE85CF3
3D65F4D8
3E5A4914
BBF8D0A2
BE20E427
3DF0551F
BDE262E7
3DBACDF6
BDDA35D2
3CF52EBE
BDE046DF
BDADF6D2
BE0143D1
BE968F37
BE332922
BE8F2ED5
3E1CFFBE
3C3D2A32
3E70AC20
BE4E3755
3DB6B438
3E7C7CD1
3DEE565B
BE3AA422
BE9E6925
BE2F27B0
3DA0FFC3
BDFD1790
3E3521EF
BC3F2591
3E0EA789
3E89DD6B
BE13A5EC
BDD014D6
BE57C379
BE2DE0CA
BE1DD76C
3E5FAA44
3E5D47C6
3E237C0D
BDD0C8C8
3C49235B
BD87A1BB
BABB8C00
3E62C35D
3D2D879F
3DF4C917
3E57B010
3DC501DC
BDE005BB
3DB0401C
3E50174E
3DE6BE4F
BD781A99
BE0F716F
3E20306D
3C01CAA3
3E2E5C8B
BDB6EF86
BC361099

