BD3FAFDD
BB7CF8D6
BE5FED21
BD0F4AD5
BE518EDA
3E067C8D
3CAEACDB
BD0712A9
3DF46E0C
3E4437C9
BE3A93D5
BE4F64CF
BE2AE996
BDC13A08
3DB82670
BE150116
3DAE70C9
BDC154E5
3D2C844B
3E42A065
BDB3E653
3E275DE4
3D8F506A
BDFFCE5C
BB95155D
3DA8B5CB
BDF4B0A0
BE3FF12C
BCE9B8B9
BDB7E25A
BDAE447C
3CDC48A9
BE4B8C27
3DDC34C6
3CA6C3B7
3D3F71CE
3E1DE4CD
3D3AC6E2
BDE1FD34
3D991657
3D4A8247
3D5C5F49
3DE028FE
3D8A6160
3DDBB69F
3CB7C4C4
BD2FD128
BE4F0D90
3E2AB988
BDD4996B
3C371654
BCB53817
BE0DA5BD
BDDEB897
BE509B6D
3D0E0B8A
3E04C7D8
BE3ABEA6
3E3750DE
3CE7B9E9
BB4AE5C0
3E29753F
3E3D0D66
3E1AF3D5
3DB09594
BD15C3F6
BE30E47D
3D8C737D
BDD3205D
BE3382AD
3C8332EC
3E177330
3CA9CDD2
3C9A1819
BD25B81E
BD08C87D
BE19B884
BDA6C007
3E44ACD4
BC91EAC3
BE2CCADD
BD3B9E6B
3E470E91
BD2BA67D
3D902598
BDE107AC
BE4A19EC
BDFF98A2
3E332982
BDC13160
3D8D3379
BD7D62BD
3D0E7204
BDD08701
3D993436
3DAB6ADB
BE2ED1BB
BD56BF6F
BE5CE5C8
3CC479A4

